[NULL]
[END]
[START]
!
"
#
$
%
&
'
(
)
*
+
,
-
.
/
0
1
2
3
4
5
6
7
8
9
:
;
<
=
>
?
@
[
\
]
^
_
`
a
b
c
d
e
f
g
h
i
j
k
l
m
n
o
p
q
r
s
t
u
v
w
x
y
z
{
|
}
~
¡
¢
£
¤
¦
§
«
®
°
·
»
¿
æ
ð
ø
–
‘
’
“
”
⁄
₤

the
and
of
to
is
br
it
in
this
that
was
as
for
with
movie
but
film
##s
you
on
not
he
are
his
have
be
one
all
at
they
by
an
who
so
from
like
there
her
or
just
about
out
if
has
what
some
good
can
more
she
when
very
up
time
no
even
my
would
which
story
only
really
see
their
had
##ing
we
were
me
well
than
much
##ed
get
bad
been
people
will
do
other
also
into
first
great
because
how
him
don
most
##ly
made
its
then
way
make
them
could
too
movies
any
after
think
characters
character
watch
two
films
##d
seen
many
life
being
plot
##y
acting
never
love
little
best
where
over
did
show
##e
know
off
ever
man
does
here
better
##er
your
end
still
these
say
scene
why
while
scenes
ve
go
such
something
should
back
through
real
those
watching
now
though
doesn
thing
old
re
years
actors
director
##a
work
10
didn
another
before
new
nothing
funny
##t
actually
makes
look
find
##r
going
few
same
part
again
lot
every
world
cast
us
quite
down
want
things
pretty
young
seems
around
horror
got
however
fact
##o
take
big
enough
long
thought
series
both
between
may
original
give
action
own
right
without
must
comedy
always
times
point
gets
family
come
role
isn
##n
saw
almost
interesting
least
done
whole
music
bit
guy
script
far
making
feel
anything
minutes
last
might
since
ll
performance
##es
girl
probably
woman
kind
am
tv
away
yet
day
rather
worst
fun
sure
##i
hard
anyone
played
##on
each
found
having
although
especially
our
course
believe
screen
comes
looking
trying
set
goes
book
looks
place
actor
different
put
money
year
ending
dvd
let
maybe
someone
true
once
sense
everything
reason
wasn
shows
three
job
worth
main
together
play
watched
american
everyone
plays
john
effects
later
audience
said
takes
instead
house
beautiful
##l
seem
night
high
himself
version
wife
during
left
father
special
seeing
half
star
excellent
shot
war
idea
black
##al
##ness
nice
less
else
mind
simply
read
second
fan
death
men
hollywood
poor
help
completely
dead
used
home
line
short
either
given
top
kids
budget
try
classic
wrong
performances
women
boring
enjoy
need
use
rest
low
friends
production
##man
full
until
camera
along
truly
video
awful
couple
tell
next
##ers
remember
stupid
stars
start
sex
perhaps
mean
won
came
recommend
moments
episode
school
wonderful
small
face
understand
##k
terrible
playing
getting
written
early
name
doing
keep
often
style
perfect
human
person
others
definitely
gives
itself
boy
lost
lines
live
become
dialogue
head
piece
finally
yes
case
felt
mother
liked
supposed
children
##an
cinema
couldn
title
##m
white
absolutely
picture
##in
against
sort
worse
certainly
went
entire
waste
killer
##ic
oh
problem
evil
mr
hope
entertaining
friend
overall
called
based
loved
fans
several
drama
##h
beginning
lives
direction
care
already
dark
becomes
laugh
example
under
despite
seemed
throughout
turn
son
unfortunately
wanted
##ting
history
michael
final
heart
child
fine
amazing
sound
guess
humor
lead
totally
guys
writing
quality
close
##g
##ment
art
wants
game
##u
behind
town
works
side
tries
days
past
viewer
able
flick
hand
genre
act
turns
enjoyed
today
##ion
##ity
kill
favorite
car
soon
starts
actress
run
##ie
sometimes
eyes
gave
etc
girls
late
god
##en
directed
horrible
kid
brilliant
city
##able
parts
blood
hour
self
themselves
stories
thinking
expect
##le
stuff
obviously
decent
voice
writer
fight
highly
myself
feeling
##p
daughter
##ies
slow
except
matter
type
age
anyway
##ling
roles
moment
heard
killed
says
brother
leave
##ge
took
strong
cannot
police
##rs
violence
hit
stop
##less
happens
known
##ia
particularly
involved
happened
chance
extremely
##or
james
obvious
##ation
living
murder
told
coming
alone
experience
wouldn
lack
hero
##ful
##us
including
attempt
please
happen
crap
gore
wonder
complete
cut
group
ago
interest
none
score
husband
david
hell
save
simple
ok
looked
song
career
number
seriously
possible
annoying
king
sad
exactly
shown
##c
musical
running
scary
serious
yourself
reality
taken
english
released
whose
cinematography
ends
##ism
usually
hours
opening
##ive
jokes
light
hilarious
body
across
cool
relationship
somewhat
happy
ridiculous
usual
view
level
started
change
opinion
novel
wish
middle
taking
talking
documentary
ones
order
robert
finds
power
shots
female
saying
huge
room
mostly
episodes
country
five
talent
important
rating
modern
earth
major
strange
word
jack
turned
call
apparently
single
##ch
disappointed
four
events
due
songs
attention
basically
television
comic
knows
future
clearly
non
supporting
british
knew
##ist
paul
thriller
fast
class
cheap
easily
silly
problems
aren
words
miss
tells
entertainment
local
rock
sequence
##te
bring
beyond
##z
george
straight
oscar
upon
##ne
romantic
whether
moving
predictable
sets
similar
eye
falls
review
mystery
lady
richard
enjoyable
talk
appears
needs
##ted
giving
##th
within
message
ten
theater
animation
near
team
##ry
above
red
sequel
sister
dull
theme
nearly
stand
##ty
lee
points
bunch
haven
herself
mention
add
feels
york
##ce
release
##ton
storyline
ways
easy
surprised
using
named
lots
##ble
fantastic
begins
die
working
##ally
actual
effort
feature
tale
french
hate
minute
follow
stay
clear
tom
viewers
among
elements
comments
typical
avoid
editing
showing
tried
famous
peter
sorry
check
fall
season
dialog
##est
period
certain
filmed
form
general
##st
buy
soundtrack
parents
weak
material
means
figure
realistic
crime
doubt
somehow
space
disney
gone
##nt
kept
leads
viewing
##b
greatest
dance
lame
suspense
atmosphere
zombie
third
##is
brought
imagine
hear
##ts
whatever
particular
de
america
sequences
move
##et
##f
##ra
indeed
##x
rent
average
eventually
learn
note
wait
forget
reviews
deal
japanese
surprise
okay
poorly
sexual
stage
premise
believable
nature
##ine
possibly
sit
subject
##re
decided
expected
imdb
dr
truth
street
became
free
difficult
screenplay
killing
romance
20
baby
##el
joe
dog
hot
nor
question
reading
leaves
needed
begin
meets
directors
society
unless
credits
otherwise
shame
superb
write
situation
meet
dramatic
male
memorable
open
badly
dream
earlier
weird
writers
forced
acted
fi
laughs
sci
crazy
emotional
jane
##ated
older
##ous
beauty
monster
realize
comment
deep
##ian
##ish
footage
forward
interested
fantasy
ask
##ate
##ck
mark
plus
sounds
whom
directing
##led
features
##am
development
keeps
mess
air
quickly
box
creepy
girlfriend
perfectly
towards
##na
worked
cheesy
setting
unique
bill
effect
fire
hands
plenty
result
total
brings
previous
personal
incredibly
rate
business
doctor
joke
return
apart
casting
christmas
leading
admit
appear
background
cop
powerful
30
##ping
##v
boys
ben
present
meant
battle
era
telling
break
hardly
masterpiece
create
potential
secret
pay
dumb
gay
political
##id
fighting
fails
twist
various
portrayed
villain
co
inside
western
##w
80
nudity
outside
reasons
william
front
ideas
match
missing
deserves
married
expecting
##ized
fairly
rich
##nce
list
talented
scott
success
unlike
##ped
attempts
manages
remake
spoilers
cute
odd
social
recently
flat
##ter
copy
further
sadly
wrote
##der
agree
sweet
##it
cold
##la
crew
##ent
mary
office
plain
##ar
filmmakers
following
missed
mentioned
public
gun
incredible
pure
wasted
brothers
ended
large
caught
produced
revenge
##de
la
members
filled
##son
pace
party
popular
science
waiting
cat
water
##ant
decides
##se
##ve
cartoon
considering
hold
spirit
created
tension
slightly
fear
uses
##cy
convincing
compared
escape
familiar
suddenly
neither
sees
spent
island
cause
intelligent
##land
clever
state
entirely
dancing
language
##tion
bored
choice
credit
kills
moves
90
band
century
laughing
##ving
italian
cover
value
successful
tony
violent
visual
15
speak
trouble
##ley
ultimately
basic
concept
singing
store
positive
zombies
studio
animated
german
biggest
company
exciting
##um
force
consider
runs
died
effective
##ring
adult
control
depth
recent
walk
##2
##ner
adventure
former
law
amusing
common
focus
##ey
portrayal
spend
##ning
appreciate
rated
books
hair
pointless
trash
solid
younger
##ial
planet
impressive
tone
bizarre
follows
mad
respect
super
college
impossible
amount
culture
van
smith
##dy
prison
heavy
project
trip
dad
producers
slasher
weren
win
chemistry
conclusion
makers
##ler
fit
recommended
showed
jim
sick
situations
starring
accent
awesome
disturbing
changed
considered
ghost
steve
barely
cult
failed
post
somewhere
##ary
50
decide
leaving
honest
anti
questions
shooting
tough
longer
audiences
fiction
west
brain
##1
aside
fake
meaning
touch
images
south
thanks
charming
computer
##ding
magic
stick
ex
generally
literally
pathetic
stewart
values
likes
surprisingly
alive
involving
camp
natural
##bly
##il
##istic
grade
immediately
military
yeah
harry
detective
garbage
london
shoot
week
100
bought
cliche
frank
normal
sam
aspect
fair
honestly
##0
ability
adaptation
army
master
pictures
utterly
genius
nobody
pick
appearance
explain
sitting
##ur
glad
motion
attack
standard
##ance
appeal
drive
catch
knowing
personally
sexy
nowhere
rare
edge
humour
added
channel
thank
charlie
comedies
journey
purpose
remains
silent
walking
##ma
##sh
chase
##me
loud
naked
taste
thinks
twists
##os
beautifully
date
dreams
producer
##ro
road
subtle
touching
unbelievable
club
terms
terrific
70
batman
door
equally
mood
wild
wow
blue
drawn
kelly
complex
fully
key
mistake
##ure
managed
##ir
##tor
government
laughable
lovely
narrative
pieces
##as
bottom
themes
climax
likely
soldiers
chris
disappointing
gang
plan
vampire
soul
award
excuse
issues
noir
costumes
justice
outstanding
thus
marriage
painful
surely
boss
constantly
innocent
pass
victim
christopher
presented
##ll
ride
spoiler
##way
cinematic
slowly
##ned
central
contains
everybody
finish
hey
places
train
animals
besides
details
manner
presence
thrown
##ging
##ta
charles
historical
##per
allen
charm
henry
hoping
photography
scenery
stunning
church
indian
jones
smart
##ard
impression
mysterious
paris
speaking
developed
disappointment
expectations
green
loves
drug
numbers
color
throw
##ize
exception
##ating
##io
ahead
double
minor
woods
boyfriend
cry
festival
track
aspects
critics
hotel
opera
stands
lover
suppose
##da
bother
emotion
brief
building
feelings
sent
##tic
acts
serial
##fully
bruce
filming
forever
mainly
opportunity
support
element
million
student
##ut
fascinating
held
names
page
emotions
##red
available
intended
##ged
twice
40
bar
changes
dies
six
##ee
##ng
born
compelling
shock
bed
zero
##ger
##les
falling
happening
likable
hurt
lived
jerry
pain
puts
tired
##ier
##ny
giant
image
spot
offer
ray
confused
suggest
trailer
victims
adults
difference
fresh
hasn
include
billy
al
impact
summer
arthur
christian
event
followed
step
alien
approach
fellow
appeared
park
sub
11
system
actresses
gorgeous
putting
confusing
laughed
mix
holes
martin
mom
murders
notice
share
wall
content
direct
ii
mediocre
moral
porn
##ney
americans
lacks
race
rape
supposedly
##my
flaws
##co
creative
land
latter
tragedy
worthy
##ite
##ties
agent
answer
gem
lighting
random
relationships
students
helps
thin
funniest
merely
proves
seven
wise
wondering
finding
paid
damn
flicks
flying
hospital
childhood
delivers
imagination
stone
##que
cliches
davis
standards
beat
forgotten
ugly
attractive
ground
absolute
brian
count
impressed
jean
negative
alan
extreme
ms
provides
stuck
thoroughly
##ious
lord
seconds
becoming
inspired
seemingly
soldier
tragic
winning
addition
folks
queen
reminded
ship
##ue
affair
fell
offers
detail
faces
industry
lose
thats
##ps
intense
turning
williams
afraid
collection
##ns
##ze
animal
design
fashion
hidden
nasty
pull
ed
##age
##ence
creature
games
jackson
teen
apartment
artistic
bond
castle
quick
shocking
shouldn
##bs
##ky
personality
roll
scientist
adds
area
chinese
location
rented
angry
dirty
fox
length
ready
states
##rate
information
professional
therefore
uncle
filmmaker
lets
##tt
anymore
food
##iness
##to
mouth
wars
##at
##ments
artist
jason
listen
news
12
danny
describe
led
picked
wooden
asks
deliver
favourite
grace
clothes
martial
onto
intelligence
member
stephen
struggle
##ke
captain
carry
criminal
redeeming
wearing
##king
allowed
cgi
compare
cross
drugs
sleep
teenage
desperate
helped
machine
necessary
rip
tears
wonderfully
sight
moved
plane
witch
deeply
includes
phone
sky
station
trust
##lo
##ves
disaster
heaven
treat
whatsoever
willing
##ming
##ster
andy
began
commentary
humans
theatre
accident
build
epic
heroes
mid
nightmare
energy
pop
powers
realized
loving
suicide
##ess
##ration
##ved
comedic
douglas
extra
rarely
taylor
warning
##ks
##ss
devil
dying
independent
teacher
introduced
engaging
johnny
superior
##ery
##line
actions
eddie
suit
##tive
anybody
arts
religious
ring
unusual
##ds
##ions
apparent
mental
pleasure
pre
remarkable
tim
##ering
##lin
allow
keaton
superman
continue
grand
physical
returns
unnecessary
watchable
##ded
absurd
memory
##ors
england
hitler
media
provide
skip
technical
wedding
##ber
##house
##ise
anywhere
desire
ford
normally
scared
vision
60
adam
brutal
fred
limited
bloody
finished
joan
jr
russian
surprising
##well
80s
cops
intriguing
kate
legend
process
suspect
##7
000
70s
accept
exist
holds
jeff
jump
paced
pilot
player
prince
torture
nicely
somebody
twenty
growing
horse
search
wanting
academy
faith
reminds
soft
according
cage
gold
hated
moon
pacing
passion
price
shakespeare
##6
##ably
##field
##ls
asked
bits
dick
ladies
##tte
##up
dressed
joy
nick
##ah
drunk
japan
##8
constant
dangerous
deserved
heads
heroine
ill
lovers
tarzan
##ina
ball
blame
community
explanation
field
lies
originally
sat
smile
candy
freddy
higher
instance
jesus
kevin
river
##gy
##op
##ot
ann
##ible
capture
deserve
issue
met
mixed
nonsense
gotten
players
unknown
explained
fail
fights
plots
soap
toward
accurate
creating
european
fu
knowledge
quiet
radio
record
friendship
guns
starting
vhs
humanity
ice
mike
whilst
##uring
floor
hadn
spanish
sucks
wide
cable
officer
##ities
##ker
##py
cars
judge
memories
realism
broken
eating
finest
loose
lynch
villains
##berg
aware
featuring
gene
lacking
monsters
partner
##izing
##pe
keeping
lewis
responsible
santa
saved
saving
##ile
##uous
author
below
eat
empty
fat
kinda
mine
morgan
rubbish
treated
understanding
youth
bland
cuts
delightful
jimmy
pulled
results
sign
singer
terribly
wind
##men
bright
conflict
hopes
simon
vs
witty
##4
brown
forces
gary
hits
included
manage
months
noticed
washington
werewolf
fate
loss
screaming
sing
wood
##ily
blonde
driving
kong
numerous
private
whenever
##no
##ore
concerned
pretentious
streets
##j
bigger
dealing
finale
ordinary
scream
talents
ass
dated
discovered
eric
naturally
reviewers
skills
unfunny
##cing
bob
discover
international
morning
opposite
perspective
psychological
regular
ups
##do
albert
bank
kick
mission
prove
portray
sea
##go
anthony
humorous
locations
loses
owner
sean
shop
visit
##ld
13
blind
curious
edited
gags
grant
luck
received
##ct
##ka
##ville
behavior
captured
continues
dan
debut
magnificent
satire
##by
##mer
##tes
calls
context
golden
howard
miles
mrs
murdered
survive
advice
breaks
cameo
core
existence
foot
gangster
jennifer
opens
shallow
trek
visually
buddy
connection
corny
deals
lucky
luke
remembered
traditional
current
essentially
revealed
window
frankly
genuine
harris
identity
lesson
occasionally
##sing
african
decade
dimensional
national
segment
stock
village
##ms
##ons
##rn
anne
boat
efforts
learned
thomas
marie
program
versions
visuals
allows
develop
formula
grown
rob
anna
bear
comparison
genuinely
president
references
sucked
welles
##9
board
desert
favor
grew
lake
logic
study
suffering
unexpected
##ified
ages
meanwhile
overly
proved
reaction
speed
standing
vampires
##ud
awkward
brilliantly
leader
psycho
robin
spectacular
sudden
ultimate
##oo
failure
flesh
parody
reach
sheer
steal
types
unable
##ations
##ha
evening
frame
killers
passed
sake
stereotypes
travel
##3
##ical
awards
creates
drew
gordon
halloween
rose
sinatra
strength
technology
##au
##ft
##head
bet
hill
laughter
round
sheriff
site
##5
##sed
anime
barbara
broadway
clean
delivered
kung
parker
##ri
crappy
freedom
relief
##rating
code
emotionally
executed
gonna
insane
model
pair
steven
##her
decision
discovers
dreadful
fault
flashbacks
painfully
reviewer
utter
##ball
commercial
driven
families
graphic
hunter
woody
##ca
##sm
##ver
majority
naive
native
protagonist
ran
religion
asian
attitude
bomb
built
caused
daniel
entertained
foreign
gratuitous
individual
meeting
seasons
victor
cash
feet
nevertheless
test
underrated
vehicle
wayne
##use
endless
generation
levels
obsessed
relate
rise
treatment
##ay
costs
france
gory
pleasant
practically
range
tape
wit
aged
ancient
chick
cinderella
classics
described
exploitation
victoria
alex
angel
center
chosen
cliched
fly
jackie
joseph
product
seat
sell
winner
breaking
combination
fill
hearing
irritating
rescue
rules
send
##ba
##gan
chief
dry
excited
fame
stopped
uk
##ual
assume
haunting
pity
portrays
produce
proper
sympathetic
theaters
##ened
##rd
asking
believes
capable
cares
extras
handsome
roy
sports
theatrical
##ates
##zed
choose
contrived
germany
largely
moore
nancy
portraying
ruined
safe
warm
##ris
canadian
crowd
depressing
embarrassing
learns
marry
matt
paper
priest
recall
unrealistic
appealing
dubbed
hearted
louis
par
##ries
clue
contrast
facts
grow
involves
matters
ryan
sequels
##work
anderson
correct
costume
evidence
patrick
##out
claim
heck
hunt
mask
nominated
research
strongly
teenager
vote
##one
appropriate
disgusting
eight
excitement
football
hall
walter
##ill
##va
##ward
cost
losing
lousy
oliver
saturday
talks
##ff
##rated
##time
destroy
fool
promise
scare
substance
thoughts
circumstances
com
factor
market
tedious
training
voices
##ship
bodies
europe
haunted
robot
teenagers
universal
##des
##dle
##med
##ni
##pt
amateurish
bringing
captures
che
convinced
satisfying
trilogy
united
##ists
amateur
baseball
danger
fits
hanging
max
tend
##ator
##hip
asleep
creatures
fairy
hopefully
horribly
lower
rental
spoil
tiny
virtually
welcome
insult
mini
murphy
north
powell
relatively
reporter
till
walks
##rk
africa
category
continuity
covered
cowboy
hat
skin
steals
##sy
contemporary
cutting
drag
influence
offensive
target
unlikely
##be
##iest
depicted
fare
handled
hide
inner
lawyer
scale
semi
texas
viewed
witness
##ki
##ress
##ul
14
hitchcock
holding
initial
kim
remain
service
shocked
unfortunate
##ens
believed
politics
professor
russell
surreal
chan
movement
pile
presents
promising
provided
qualities
section
sisters
weekend
angles
australian
closer
columbo
designed
liners
makeup
peace
refreshing
sharp
source
structure
touches
##back
##nes
##ol
##shed
cartoons
claims
deaths
display
drop
forgettable
lesbian
spy
##and
adventures
caine
clark
degree
edward
faced
plans
previously
repeated
surprises
##ron
##tch
accents
enemy
focused
propaganda
roger
ruin
serves
blow
brave
cant
chose
emma
highlight
mainstream
pacino
prime
related
speaks
supernatural
treasure
weeks
whoever
##ability
25
crash
deadly
erotic
granted
latest
rain
routine
suffers
veteran
##ford
##mi
accidentally
alice
dollars
experiences
harsh
invisible
mistakes
print
speech
wilson
aliens
colors
dogs
mgm
notch
realizes
sympathy
teens
twisted
uninteresting
##mo
combined
draw
friday
guilty
nude
security
struggling
ted
##ire
##mp
atrocious
convince
dozen
matrix
path
princess
terror
universe
##kin
##town
##un
appreciated
birth
blah
enter
gritty
mountain
##fied
committed
driver
frightening
gas
irish
lugosi
recognize
sword
technically
walked
aka
changing
department
magical
pitt
sarah
sun
##ad
##ice
##ide
court
darkness
directly
explains
false
friendly
occasional
##ick
abuse
anger
demons
experienced
featured
legendary
massive
narration
offered
paint
performed
prior
sullivan
surface
suspenseful
theory
variety
vietnam
##ack
##ade
##ians
##li
##nd
##ti
##wood
beach
crying
donald
figures
forest
hong
johnson
kinds
passing
reputation
subtitles
bourne
everywhere
forth
junk
multiple
nazi
network
required
sorts
statement
stolen
sunday
titanic
un
##ane
california
china
conversation
exact
execution
express
grave
melodrama
metal
rachel
regret
remotely
reveal
scares
urban
##za
belief
dean
downright
fictional
freeman
grim
hired
hoffman
jon
julia
jungle
lonely
mexico
placed
proud
revolution
rule
san
spends
trapped
##ised
abandoned
afternoon
beast
blockbuster
bothered
bus
crude
effectively
favorites
figured
insight
lifetime
listening
nation
worthwhile
##ray
##ung
##zy
account
branagh
dragon
happiness
imagery
jobs
lisa
rough
susan
unconvincing
wear
alright
angle
foster
idiot
minds
rings
##lly
blown
buying
cultural
delivery
ha
mexican
paying
pulls
rights
von
60s
amazed
burns
christ
demon
dude
larry
productions
quest
reveals
rolling
ron
scenario
sir
starred
##ow
1950
artists
bore
focuses
handed
mature
ned
shadow
significant
status
stayed
stays
thankfully
tight
views
con
cruel
device
dress
examples
ghosts
hip
indie
interview
lights
mere
sensitive
studios
table
teeth
##ction
##ok
##vy
gross
heavily
india
necessarily
sidney
skill
suffer
achieve
bound
campy
desperately
format
maria
murderer
position
seek
sleeping
spite
understood
##ain
##ell
beloved
closing
complicated
destroyed
fabulous
faithful
forgot
hardy
initially
midnight
pregnant
summary
##den
##rm
17
breath
decades
deeper
facial
flight
ignore
racist
renting
stereotypical
warner
wing
##ya
ain
answers
calling
cell
dennis
expert
flashback
fourth
helping
intellectual
league
lincoln
ludicrous
raw
slapstick
suck
arms
brad
buck
cabin
critical
description
disbelief
drinking
elizabeth
encounter
environment
inept
learning
musicals
prefer
reminiscent
settings
sounded
tree
##ga
##ory
##rain
1980
amazingly
bbc
criminals
daughters
greater
julie
mildly
quirky
regarding
sandler
task
truck
underground
warned
##cle
##hood
##om
aunt
base
claire
criticism
extraordinary
funnier
halfway
leslie
punch
screening
storytelling
throwing
titles
turkey
wave
##ak
##ans
##ez
##ip
depiction
entertain
jail
michelle
notorious
praise
##board
choices
comical
convey
expression
extent
honor
jessica
kiss
originality
prepared
spoof
trick
##cher
##our
east
experiment
lane
raised
rogers
touched
##mate
##ric
##ura
basis
bollywood
brooks
chilling
dollar
graphics
headed
inspiration
miller
mirror
picks
purely
spoken
timing
toy
via
##ches
##ral
##ulate
bat
breathtaking
charge
introduction
lazy
lie
mouse
notable
novels
shut
stanley
weapons
##ash
##cies
##ub
blair
burt
crafted
everyday
guard
handle
hole
join
locked
maker
nowadays
properly
serve
stomach
strangely
succeeds
term
throws
##ach
##che
##ings
##its
##used
##vin
2000
adding
authentic
caring
causes
cooper
laura
lion
pet
provoking
ratings
reference
regard
sitcom
tales
wears
2006
carrying
challenge
fallen
lesser
protect
tracy
workers
##ching
##day
##ingly
##ished
##val
1970
amongst
bitter
daily
determined
established
jewish
nonetheless
obnoxious
raise
sleazy
southern
usa
westerns
wins
##bo
##nne
alas
attempting
bettie
carried
carries
cases
confusion
embarrassed
escapes
gruesome
holmes
reed
remote
sinister
##bing
##cks
##ncy
arrives
busy
clips
enjoying
essential
hood
inspector
interpretation
ironic
madness
mass
minded
navy
needless
obsession
philip
replaced
risk
sold
tradition
##play
2001
angels
balance
carpenter
existent
exists
flow
goofy
intentions
mansion
nine
retarded
rival
screenwriter
seeking
stanwyck
successfully
##ges
##gs
##rie
##ug
attacked
em
jake
jumps
laid
legs
lucy
marvelous
mentally
oddly
presentation
sutherland
topic
##ett
##light
##ured
brando
comedian
cook
fortunately
horrific
jay
manager
shape
shower
vacation
##ium
##nie
##ock
##pers
##tors
ashamed
attacks
cheese
grey
intensity
interviews
patient
served
stops
stupidity
stylish
text
thief
upper
wanna
wwii
albeit
bridge
chair
delight
fish
frequently
glass
matthau
mob
packed
personalities
remind
sides
sin
thrilling
tongue
##ino
##od
##ony
##ria
1950s
bo
contain
flawed
poignant
seagal
sum
suspects
##away
##cal
##ched
##fy
18
baker
bette
drives
expressions
hence
internet
opened
pitch
riding
rochester
stranger
struggles
widmark
##ins
adapted
credibility
cynical
dinner
elvis
franchise
greatly
innocence
mindless
overcome
refuses
revolves
spielberg
torn
tour
upset
wishes
advantage
catholic
corner
credible
dubbing
elvira
fbi
italy
lessons
nelson
noble
pool
racism
storm
thousands
warn
wealthy
alike
arm
broke
bugs
burton
controversial
crisis
dentist
happily
helen
hills
medical
pack
snow
spin
streisand
tense
trial
trite
##ced
##lessly
##nal
##oke
##wed
andrews
carter
contact
countries
derek
guessing
hundreds
physically
pride
reunion
thrillers
##ass
##bed
##im
bag
card
chaplin
dislike
enjoyment
gripping
per
perform
performers
sexuality
succeed
suffered
technique
wasting
##bling
##room
##tle
britain
dancer
ensemble
flash
glimpse
hundred
kurt
millions
mst3k
neat
ourselves
separate
shines
sings
sons
tied
uncomfortable
virgin
whereas
##cious
##let
##rey
##rry
##sion
arnold
assistant
atmospheric
courage
drink
exceptional
hint
holiday
infamous
irony
karloff
month
plastic
proof
shorts
weapon
##sis
##sive
##tz
andrew
connected
cousin
cube
curse
flynn
glory
knife
oscars
ralph
scripts
searching
aired
cameos
dear
host
letting
lying
nose
plague
protagonists
sentimental
steps
##ap
##ied
##ini
##rian
##uts
chasing
entry
hamlet
horses
idiotic
massacre
meaningful
portrait
quote
suggests
thousand
troubled
tune
vincent
zone
##han
##ram
24
accepted
boll
burning
colorful
consists
develops
fortune
hiding
hoped
lovable
noted
perfection
split
stan
stealing
stretch
unforgettable
##izes
##ja
annoyed
attraction
basement
chases
chuck
concert
condition
equal
gain
guts
hang
hunting
larger
lucas
miscast
neighborhood
pg
redemption
repeat
saves
spots
strip
worlds
##ten
16
belongs
catherine
curtis
destruction
dialogs
dig
dorothy
factory
glover
guilt
object
oil
pat
pie
pro
roberts
shoots
st
terrifying
walken
worry
##ai
##ibly
ad
appearing
boredom
denzel
dramas
eerie
hudson
neck
shark
thirty
##em
##lm
1st
2005
bears
civil
closely
competent
concerns
encounters
expensive
flaw
gag
hanks
homeless
imaginative
library
loser
multi
scientists
trade
ultra
wake
##mination
achieved
appearances
canada
checking
complaint
crimes
elsewhere
endearing
eva
hooked
knock
letter
lloyd
neighbor
profound
rush
segments
sends
silver
solve
stunts
virus
weight
##ative
##gling
##ig
##logical
##tory
##ures
beating
bobby
carol
charisma
colour
dare
dragged
eastwood
essence
fashioned
huh
incoherent
jeremy
ripped
rocks
rushed
secretary
tear
tribute
winter
##cted
believing
birthday
cusack
dealt
doc
fest
fitting
goal
health
hitting
noise
spell
striking
tea
teach
tricks
##bi
##ising
##over
##rates
attempted
battles
bride
briefly
bush
countless
dawn
gothic
heston
magazine
painting
reactions
scooby
slight
stunt
techniques
thumbs
videos
##nic
##res
##uit
##zing
1990
brand
charismatic
covers
hearts
iii
inspiring
kane
pointed
ritter
sally
sexually
specific
strikes
unintentionally
##ics
##ters
admittedly
barry
bible
carefully
godfather
grows
horrendous
hype
importance
jerk
mild
neil
smoking
surrounded
surrounding
##hy
chances
comics
corrupt
eyed
fired
guest
homage
kicks
poverty
relevant
revelation
shall
spending
spike
stiff
stood
stronger
tons
walls
##aving
##lee
##sa
1970s
astaire
attached
cole
cox
duke
easier
enters
executive
ian
intention
killings
le
lily
medium
miike
monkey
represents
requires
row
stated
##ders
##ification
##ov
2002
associated
cardboard
carrey
disagree
dropped
exercise
forgive
gift
increasingly
inevitable
korean
lab
mafia
messages
occurs
performing
projects
strike
university
##gle
##ogue
##row
acceptable
bakshi
contract
dawson
drags
identify
jesse
kubrick
luckily
nights
resolution
reynolds
silence
toilet
typically
##tions
1980s
brilliance
creation
davies
depression
fisher
gotta
hire
investigation
nuclear
savage
selling
shining
sophisticated
strictly
thrills
vague
worker
##ache
##aging
##als
##ature
##itor
afterwards
allowing
beings
breasts
brosnan
continued
cruise
disease
ego
estate
fifteen
heat
instantly
insulting
jamie
joey
kidnapped
kudos
overlooked
rex
satan
smooth
struck
union
useless
##ag
##die
burn
commit
competition
corpse
creators
digital
evident
grandmother
handful
importantly
meat
norman
partly
persona
pleased
press
presumably
pushed
sacrifice
spirited
tremendous
wreck
##cent
##ko
##rous
##rt
aforementioned
ambitious
arrested
australia
boxing
buried
conspiracy
fears
ho
individuals
menacing
photographed
raped
realise
relative
returning
superbly
talked
threatening
twin
wondered
worthless
##ces
##ulated
45
abc
appalling
citizen
diamond
doors
drivel
flawless
frustrated
guide
highlights
jet
jumping
listed
mitchell
narrator
nurse
regardless
samurai
shy
size
spiritual
ward
wonders
##ald
##any
##ines
##mber
##ses
##uing
##worth
accomplished
achievement
admire
beaten
border
bucks
bullets
cagney
characterization
critic
cup
curiosity
distant
empire
fatal
generous
horrors
lou
mann
miserably
outrageous
piano
planning
pleasantly
push
rap
spooky
spring
string
ticket
trap
##point
accused
attracted
beer
butt
cameron
cia
clues
consequences
doo
francisco
goldberg
ironically
ken
los
mile
notes
perry
picking
prevent
repetitive
splendid
spoiled
temple
territory
uninspired
##don
##he
##hing
##igh
##unk
20th
alexander
blank
blob
blows
chain
craig
dire
ellen
emily
falk
farce
gandhi
indians
logical
mate
melodramatic
modesty
morality
motivation
opposed
psychiatrist
response
revealing
root
shortly
slap
slightest
souls
throat
turner
watches
##ars
##ette
##ition
##vert
cared
convoluted
directorial
documentaries
dracula
duo
fay
felix
fx
gray
hatred
installment
jealous
lacked
laurel
liberal
manhattan
precious
pulling
ruth
shoes
subplot
subsequent
suits
tall
timeless
titled
wells
wes
##fire
##lia
##posing
aimed
conceived
editor
exaggerated
forbidden
futuristic
ignored
intrigued
marks
overdone
poster
progress
psychotic
remaining
sole
warrior
wolf
##ators
##ury
##wing
bleak
bug
captivating
disc
drunken
elderly
explicit
failing
fancy
mel
minimal
notably
obscure
parent
paulie
reasonably
repeatedly
restaurant
scientific
smoke
superhero
tunes
##dge
##ered
##ored
##sha
##zo
2004
99
ah
argument
craven
dignity
discussion
distance
draws
elaborate
explore
giallo
glenn
gradually
idiots
kitchen
loosely
misses
outcome
photographer
providing
pushing
reduced
rid
scripted
shirt
soviet
timothy
verhoeven
wicked
##eur
##iable
##ira
##ization
##minate
##uation
2003
annie
carrie
childish
connect
cried
darker
dave
definite
eve
exposed
freak
hysterical
intent
kenneth
reasonable
returned
romero
screams
shadows
slave
sloppy
sticks
stiller
sunshine
translation
walker
wannabe
warren
worried
##cked
##ese
##lam
##late
##mit
##ump
1930s
absence
areas
birds
brazil
commercials
contrary
dancers
danes
discovery
fever
folk
gentle
horrid
imagined
load
panic
purple
thick
threat
tortured
unbearable
unbelievably
vicious
wallace
whale
yesterday
##bit
##ets
##ifies
##ight
##ils
##nant
##oe
##teen
arrive
broad
choreography
complain
concerning
differences
donna
extended
eyre
farm
heroic
improved
incident
ireland
karen
landscape
matthew
mildred
movements
prom
reached
stole
tap
triumph
twelve
##ail
##cs
##ited
##rich
altman
anyways
bare
bathroom
bite
bone
broadcast
builds
burned
cheek
daring
displays
drawing
existed
fulci
involvement
kapoor
kirk
margaret
nazis
occurred
ought
overrated
rambo
secrets
styles
symbolism
web
##ana
##ants
##lic
##rid
adequate
affected
antics
apes
audio
beatty
bird
blend
block
contained
craft
currently
demands
genres
greek
hamilton
hollow
holy
machines
newspaper
nicholson
population
ranks
recognized
resembles
swear
tommy
##ab
##bby
##ically
##table
##ute
##vation
50s
altogether
argue
bell
cliff
dynamic
enjoys
explosion
harder
hugh
investigate
journalist
leg
li
merit
neo
occur
pokemon
popcorn
pretend
proceedings
pseudo
receive
ridiculously
robots
sadistic
sadness
selfish
seventies
superficial
swedish
terry
threw
todd
trio
website
##ast
##fer
##rman
##sky
##tain
##tering
##ule
aging
atlantis
beats
cameras
composed
dinosaurs
fighter
fonda
foul
hammer
lawrence
leonard
madonna
pulp
rage
staged
suited
synopsis
tame
thrill
thugs
voight
##ase
##ening
##gate
##iation
##ji
##kes
##side
##uated
##weight
2007
2nd
bin
blake
cats
clint
clothing
comfortable
conversations
dialogues
ease
engaged
escaped
gadget
innovative
juvenile
mountains
prostitute
rural
snake
unpleasant
##graphic
##mm
##of
##rne
##sts
##uck
##wn
brady
brains
buddies
bullet
carl
centered
coherent
combat
conventional
cuba
devoted
eccentric
edie
explosions
garden
grab
intrigue
jazz
kidding
lemmon
lips
lit
lol
murderous
nearby
odds
offering
orders
overwhelming
philosophy
shine
staff
staying
versus
vivid
warming
wealth
##iled
##ister
##ked
##lies
##mic
##ren
##ulating
1930
abilities
bang
banned
blowing
cary
cringe
damage
deliberately
detailed
disturbed
errors
flop
groups
implausible
kennedy
liking
lust
meaningless
mickey
mistaken
mummy
nightmares
palma
possessed
producing
rat
react
removed
sport
unintentional
waters
##beat
##bility
##ci
##ei
##gar
##ham
##sters
##tly
##vity
1996
bedroom
careers
causing
celluloid
clown
daddy
dating
defeat
distracting
explaining
florida
ginger
harvey
hbo
holly
influenced
ingredients
jeffrey
leo
masters
officers
olivier
possibility
relies
resemblance
roman
spare
subjects
toys
undoubtedly
uneven
unwatchable
##ato
##bie
##tter
##ular
##vision
90s
aid
awake
catches
classes
clumsy
coffee
colonel
crack
discuss
duty
explored
focusing
funeral
furthermore
goodness
hart
highest
occasion
official
passes
pays
polanski
politically
primary
props
punk
satisfied
scheme
signs
spirits
succeeded
survival
yellow
##bles
##ek
##law
##matic
##port
##tation
##uss
##wer
1960
1999
ape
backdrop
brooklyn
chaos
decisions
financial
flies
generic
godzilla
hank
houses
linda
maggie
models
mysteries
remarkably
rick
secondly
sentence
sidekick
smaller
tracks
travels
trees
winters
wives
##born
##fe
##ively
##q
##ula
##vant
afford
amy
beneath
blatant
companion
consistently
desperation
destiny
devoid
doll
doomed
dutch
endings
enemies
enterprise
exotic
glorious
hal
hates
impress
instant
lifestyle
lyrics
measure
mill
notion
offended
outer
portion
primarily
principal
recorded
settle
streep
surviving
unfolds
widow
##aries
##chy
##end
##ght
##lan
##ulous
3rd
celebrity
cheating
circle
closet
communist
countryside
dances
diane
directs
dozens
enormous
et
fetched
forty
frustration
garbo
grinch
hideous
hints
homer
ideal
march
method
mixture
montage
motives
ocean
pan
performer
rebel
represent
revolutionary
shelf
shirley
terrorist
wrestling
ya
##aming
##ax
##di
##logy
##oting
##ple
##sen
##uff
##und
##yle
akshay
avoided
benefit
bold
buff
bull
coach
crush
describes
developing
disjointed
divorce
drops
fond
griffith
hardcore
immensely
judging
macy
painted
pig
rank
reaches
relations
rocket
stellar
stinker
subtlety
surfing
tie
topless
trailers
traveling
urge
user
uwe
winds
##aft
##ea
##fall
##ita
##lines
##mes
##tered
adorable
advance
amanda
angeles
april
authority
awe
backgrounds
blew
cinematographer
cure
diana
disappear
eighties
emphasis
hartley
matches
melting
niro
outfit
oz
planned
practice
ruthless
saga
seed
senseless
sh
simplistic
soccer
specifically
survivors
tender
ties
wont
##ere
##hi
1940
babe
blues
claimed
commented
corruption
earned
faster
fix
forms
gerard
judy
link
loads
loyal
lumet
mario
menace
miserable
peoples
pot
shaw
solo
splatter
transformation
vast
##00
##ae
##can
##ila
##oon
##place
##right
##rily
##ulation
##urs
arrogant
berlin
cards
choreographed
chorus
command
dedicated
depressed
dinosaur
disappeared
displayed
ears
elephant
endure
guessed
honesty
hook
hurts
illogical
interaction
introduces
involve
jonathan
khan
lasted
lena
limits
passionate
philosophical
racial
represented
riveting
rooms
sellers
tag
trashy
unsettling
weakest
##ari
##cate
##gue
##ional
##nate
##ridge
##woman
##zer
abysmal
adams
buffs
cake
cave
charlotte
chased
disappoint
domino
formulaic
franco
grandfather
hopper
hung
isolated
justify
kicked
macarthur
monkeys
moody
morris
nail
nomination
porno
possibilities
quotes
realizing
safety
sandra
scarecrow
severe
similarities
similarly
stereotype
stress
thoughtful
voiced
wendy
wore
##een
##like
##pet
##rass
##rent
##stic
##tend
##ues
##ust
1972
blond
bonus
campbell
cd
chavez
christy
concern
considerable
dalton
education
emperor
faults
finger
grasp
helicopter
improve
inventive
myers
nervous
nostalgic
preview
promised
scope
snl
solely
sounding
stinks
swimming
switch
tad
thru
trained
treats
understandable
##af
##cia
##etic
##rse
##tin
##vi
35
agrees
aids
alert
bergman
button
cg
chess
clock
comparing
consistent
corporate
del
dolls
downhill
dub
embarrassment
facing
fiance
horrifying
hyde
ignorant
kyle
lately
laws
mayor
museum
namely
orson
poetic
purchase
report
roth
rotten
species
tonight
unhappy
wet
##gen
##lock
##tan
amitabh
armed
blade
boot
confidence
conservative
constructed
defend
edgar
fooled
hop
inane
kingdom
letters
mall
montana
motivations
ollie
photos
plant
pretending
prize
reaching
ruby
shake
shelley
simpson
sits
steel
stooges
taught
transfer
vegas
waited
wished
wizard
##chi
##lli
##minating
##ture
##uded
1983
agents
andre
artificial
ballet
behave
bela
blunt
buildings
carradine
cleverly
closest
combine
connery
crocodile
delivering
destroying
dickens
dixon
eager
engage
gangsters
global
humble
inferior
iron
jenny
latin
miracle
paltrow
pants
pearl
raising
relation
sappy
staring
stevens
suitable
timon
useful
vengeance
virginia
wound
writes
##ac
##ats
##itz
##lt
##nts
##off
##rant
##rice
##roll
##stone
##tched
##try
##ys
00
1968
affect
airplane
airport
alcoholic
arrived
bands
bath
boom
chest
civilization
climactic
conflicts
convincingly
couples
elegant
gundam
iran
lay
maintain
mars
paranoia
reads
robinson
scottish
scrooge
secretly
september
sirk
slick
square
stilted
tiresome
valuable
waves
##art
##coming
##eta
##gers
##iling
##itive
##vised
##ying
1960s
access
balls
beliefs
catching
cheated
chicago
christians
closed
creator
ethan
exploration
frankenstein
im
jumped
kicking
lowest
lundgren
misery
nicholas
poetry
raymond
reflect
richardson
robbery
spock
vice
willis
witches
wrapped
yelling
##ada
##atic
##cking
##cular
##ken
##lton
##pect
##ply
##ree
##tized
abusive
advertising
austen
bottle
catchy
centers
construction
creep
designs
desired
dust
firstly
francis
germans
greedy
guarantee
invasion
junior
literature
messed
nostalgia
pal
plight
potentially
progresses
questionable
remarks
richards
scores
simplicity
spoke
spread
stallone
sue
survived
taxi
transition
vulnerable
##ception
##gger
##lay
##ome
##tone
##using
##ways
acid
advanced
advise
alongside
amounts
arguably
attitudes
bacall
brutally
careful
complexity
copies
demand
depicts
doom
eaten
experiments
frankie
gabriel
gender
hello
homosexual
hunters
illegal
inappropriate
intentionally
jaw
joined
june
kay
lengthy
louise
mail
marty
operation
persons
purchased
recognition
rendition
restored
rubber
showcase
understated
vaguely
wandering
##cky
##els
##face
##gh
##ify
##ives
##ject
##ntly
##old
##rading
##via
1973
ashley
attorney
bay
betty
biko
capital
chicks
damon
demented
descent
drake
edition
farrell
floating
grayson
illness
incomprehensible
intimate
justin
likewise
mankind
matched
molly
neighbors
newly
online
opinions
parallel
patients
phantom
pops
prisoner
prisoners
relatives
resort
resources
rising
signed
slaughter
terrorists
troops
twilight
unit
visible
visits
wisdom
witnesses
##ao
##bert
##cratic
##ef
##ik
##mb
##mine
##more
##nk
##ph
##po
##pping
##rrow
##tones
accompanied
agreed
alternate
analysis
antwone
appreciation
assault
barrymore
basketball
capturing
carell
challenging
chapter
cities
classical
dreary
ensues
fascinated
keith
lively
losers
manipulative
mistress
nuts
pit
proceeds
rabbit
responsibility
ridden
solution
suspicious
tiger
tomatoes
viewings
witnessed
worn
##asing
##cts
##erry
##ien
##ient
##low
##ntal
##uted
alison
arrival
belushi
butler
compelled
counter
defined
earl
equivalent
excessive
feed
frequent
incompetent
jaws
legal
lone
masterful
mighty
othello
overacting
owen
parties
plausible
property
randy
rats
reel
rooney
royal
satisfy
sink
smiling
spider
stale
subplots
widely
wrap
##ang
##beth
##ech
##inal
##oric
##orship
##ou
##rist
##ubby
##vich
3d
angela
bargain
calm
channels
crucial
defense
der
despair
domestic
dressing
dropping
ear
enthusiasm
exceptionally
graham
greed
hilariously
historically
instinct
israel
julian
landscapes
marion
mtv
mundane
ninja
novak
nyc
orleans
overlook
photo
priceless
psychic
rangers
reid
rocky
rukh
seeks
serving
sincere
tends
tooth
waitress
walsh
warmth
whats
##book
##ena
##ich
##igan
##irs
##lish
##macy
##mann
##onic
##rill
##rum
##some
##tel
##ux
13th
1933
abraham
alfred
assassin
belong
bumbling
carla
cassidy
chooses
creativity
dolph
generated
heights
icon
imitation
improvement
iraq
irrelevant
loaded
masterpieces
mechanical
mentioning
mentions
methods
monk
muslim
omen
opportunities
orange
pamela
pink
poem
polished
prequel
pursuit
randomly
recording
resident
spain
specially
survivor
thompson
watson
willie
wishing
zizek
##cast
##dled
##down
##graph
##lary
##lug
##rel
##roy
##tta
##ua
##ums
##unce
1984
album
alcohol
awfully
borrowed
brenda
caliber
cannibal
damme
distinct
elm
empathy
equipment
eugene
feminist
fido
gentleman
gifted
ham
hippie
household
introduce
maid
map
marketing
meryl
minimum
nephew
nerd
palace
performs
phony
promises
punishment
purposes
resist
ruins
sabrina
scotland
showdown
simmons
sneak
suffice
suspend
travesty
tribe
troubles
unreal
wacky
whoopi
wounded
##aked
##cating
##ently
##gon
##hl
##lash
##mar
##mates
##nny
##rease
##rms
##tate
##usion
##yn
1987
1997
30s
absent
activities
assigned
attend
bud
businessman
championship
clip
contest
crystal
dana
darren
deaf
definition
dimension
dud
eastern
educational
expressed
fuller
fury
greg
inducing
josh
kissing
kurosawa
les
maniac
masses
mclaglen
miyazaki
moronic
peters
petty
popularity
quinn
quit
ramones
receives
respected
rolled
sixties
soderbergh
spacey
stargate
stretched
swim
testament
trail
unaware
unoriginal
unseen
ustinov
##act
##ave
##bury
##dling
##ipe
##nch
##orm
##ort
##quest
##rough
##tism
##tling
##uses
##ush
##vel
1993
2008
antonioni
assumed
austin
biography
buffalo
composer
correctly
crawford
deceased
dee
deniro
depicting
din
distribution
doubts
edgy
exposure
fed
firm
furious
greatness
hopeless
inevitably
integrity
interests
laughably
leon
nathan
nicole
nonsensical
package
pierce
pin
rave
resulting
retired
roots
ross
shed
sid
sissy
stunned
tarantino
teaching
tech
underlying
unpredictable
valley
warriors
wholly
yard
##dies
##ew
##fly
##gg
##kins
##olf
##ord
##pable
##ringing
##rling
##ued
##zie
1971
1995
3000
accuracy
alec
brutality
buster
compassion
confess
directions
dreck
expedition
fought
harm
joel
landing
merits
metaphor
murray
patience
peak
puppet
reflection
romp
shanghai
strangers
suggested
supported
trademark
twins
uplifting
wang
##ath
##bia
##mission
##posed
##wan
adaptations
ambiguous
baldwin
checked
chicken
claus
coast
comfort
companies
conditions
exchange
femme
files
generations
glasses
grabs
immediate
indulgent
invented
kumar
legacy
loyalty
malone
marshall
passable
pete
phil
pressure
preston
reader
resemble
rita
robbins
seldom
shaky
significance
slice
stuart
tank
technicolor
unfair
valentine
victory
wilderness
woo
##developed
##fest
##fying
##hone
##jo
##lare
##mon
##mother
##pal
##position
##tance
##uate
##verse
##vo
##works
alicia
astonishing
billed
blast
boyle
christianity
confrontation
conscious
cracking
crazed
da
demise
disliked
downey
examination
experimental
fields
frustrating
gregory
grief
hawke
husbands
inability
kansas
lackluster
logan
marc
masks
milk
millionaire
newman
objective
ordered
palance
prey
raines
respectively
rises
russia
senses
ships
singers
spark
stack
subjected
tacky
tube
unexpectedly
vance
vulgar
wretched
##arian
##aze
##cover
##ean
##ees
##ibility
##illa
##ishing
##itated
##lon
##ried
##rite
##rp
##urse
##zzard
1936
22
addicted
alternative
amused
basinger
bridget
bunny
cream
deranged
desires
difficulties
dysfunctional
fascination
females
fishing
flair
foxx
frightened
gather
hears
infected
karl
kolchak
parade
poison
premiere
rates
refused
relax
remained
replace
sentiment
sentinel
sharon
shoulders
simultaneously
skull
sopranos
stumbled
sugar
sunny
tastes
tripe
wwe
##cial
##duction
##eer
##ella
##eon
##gation
##gled
##lacing
##len
##lent
##ows
##sie
##ui
##yard
##yer
1978
1988
19th
abused
accomplish
agenda
amusement
appropriately
awhile
bacon
cannon
caricatures
challenged
comedians
complaints
exposition
favour
fifty
filling
fingers
fog
framed
function
grotesque
hungry
interactions
items
joins
lands
lock
minus
musician
musicians
noises
paradise
paramount
phrase
precisely
prepare
presenting
primitive
pun
raises
remakes
require
rifle
rude
silliness
sung
teachers
underneath
wagner
wakes
wildly
##bor
##cated
##going
##lar
##lation
##life
##mond
##og
##ox
##rained
##rch
##rick
##tti
##uel
##une
##voke
1939
1989
75
absurdity
adolescent
aspiring
asylum
babies
beverly
breed
celebration
charged
choppy
clarke
coincidence
complaining
conscience
credited
curly
designer
dirt
discovering
duvall
edit
electric
esther
fantasies
fathers
hackneyed
hopkins
iv
knight
knocked
leigh
literary
loneliness
misleading
muddled
murdering
penn
pitiful
policeman
posey
posters
quietly
region
releases
riot
roof
roommate
servant
springer
stark
straightforward
sums
teaches
tomorrow
unfold
unlikable
visiting
weakness
##bble
##bited
##cracy
##ico
##nics
##oto
##oven
##pel
##ran
##ret
##rin
##rts
##ws
1986
40s
acclaimed
active
adopted
amazon
attenborough
automatically
behaviour
bernard
biased
blacks
boxer
bread
cancer
cattle
citizens
conviction
cue
devices
dont
dose
dresses
el
en
encourage
ethnic
freaks
haired
handling
heartfelt
heist
imaginable
industrial
inexplicably
invites
laurence
lindsay
mccoy
mode
moreover
nemesis
nolan
objects
occasions
penny
preposterous
profanity
provocative
quaid
ratso
realised
reign
rely
roller
saint
shared
shoddy
shoulder
swing
tierney
trend
visited
##bes
##case
##cca
##ented
##hed
##ith
##iting
##ix
##lene
##load
##lter
##nded
##nia
##ose
##rbin
##rises
##rner
##uke
##umed
##ural
##van
1979
accepts
additional
beatles
bow
bye
canyon
chills
controlled
counts
er
guitar
heartbreaking
hk
hopelessly
hughes
ignorance
ladder
min
naughty
nut
option
outfits
paxton
poe
positively
referred
regarded
rod
rosemary
secondary
sketch
skits
squad
tasteless
tracking
translated
tyler
uncut
vader
yeti
youngest
##andra
##cha
##cure
##dest
##dication
##ect
##ents
##iac
##illing
##itude
##rable
##rage
##rine
##sley
##uri
##uro
##usions
1969
abrupt
admirable
affection
backs
betrayal
bike
bitch
brendan
bronson
chainsaw
challenges
christine
chuckle
coaster
conventions
corpses
daniels
darn
deserted
fade
gal
gambling
gillian
gina
glowing
historic
insurance
jess
jews
kitty
kline
labor
lip
lush
martha
meg
minister
morbid
muppet
nod
outs
pages
patricia
peck
preminger
realm
recommendation
refer
rejected
renaissance
respective
screens
severely
suspension
thread
##ained
##aver
##hine
##istan
##kle
##lated
##lew
##nst
##pin
##rell
##rio
##road
##shes
##si
##tie
##tude
##umb
##writer
19
73
address
aim
anticipation
artsy
barrel
beware
circus
deleted
disappears
eternal
evidently
farmer
filler
fist
fontaine
guaranteed
guests
hammy
hepburn
hyped
inconsistent
indication
invited
kidman
lester
lois
mayhem
praised
prejudice
psychology
reluctant
rome
sassy
selection
shares
sooner
sympathize
tail
uh
underworld
wilder
##bu
##claim
##fight
##foot
##iety
##ishes
##lack
##oms
##oney
##ploitation
##rably
##rky
##rnie
##tein
##win
##yan
acceptance
affairs
agency
angst
banal
behold
bent
beside
boston
bros
bully
burst
conveys
cope
cruelty
dates
depending
drove
fifties
filth
fluff
gere
grudge
gut
hack
harmless
heading
housewife
iconic
insipid
investigating
jose
macho
marvel
misguided
muppets
nails
net
nicolas
oldest
outing
overlong
popping
posted
previews
promote
receiving
reeves
reflects
scorsese
shades
snakes
soup
sox
stages
stalker
steady
stopping
tenant
threatens
tip
trivia
venture
visions
weaknesses
www
zombi
##craft
##form
##heimer
##ids
##ius
##iving
##lum
##mbs
##ological
##opers
##oses
##oy
##pes
##pose
##ummer
##unt
##version
##zes
1976
1981
absorbed
alvin
ants
campaign
cassavetes
commander
completed
confident
connections
cushing
demonstrates
denis
difficulty
disguise
emerges
employed
entitled
exceptions
explores
firing
gear
grainy
harold
height
hokey
lifted
locals
morally
naschy
nolte
obligatory
pole
portrayals
pounds
preachy
records
remade
rhythm
route
runner
schlock
steele
strongest
studies
studying
terrified
triple
understands
unexplained
vein
widescreen
yawn
##acts
##aps
##az
##ii
##mas
##omy
##orted
##rance
##rary
##rier
##rise
##ser
##sses
##tage
##tha
##wa
1945
28
95
ace
ariel
assuming
assured
attract
bitten
casual
champion
clan
clueless
cohen
communicate
comparisons
conclude
couch
danish
despicable
disgusted
duck
ebert
flashy
gate
hapless
hara
insists
interestingly
legends
melody
mentality
mol
mothers
offs
paintings
partners
phenomenon
physics
politician
predict
prominent
raj
rapist
recognizable
recycled
redeem
repeating
representation
rounded
sending
shortcomings
slimy
someday
spinal
stairs
stores
suitably
unrelated
vital
wings
zane
##aking
##bone
##ensen
##ert
##fit
##gent
##ink
##ison
##ites
##ops
##pia
##rish
##som
##tar
##tee
##the
##tist
##ucker
##ugh
##unky
##vian
##vor
befriends
carey
charms
cher
clad
claiming
claustrophobic
colin
considerably
cookie
corbett
corman
coup
defeated
delicate
discussing
dylan
eats
elite
eternity
europa
feeding
flowers
forcing
garner
gems
genie
globe
guinness
harrison
heartwarming
http
independence
inexplicable
info
ingenious
ish
jordan
kathryn
limit
loretta
lukas
marlon
marries
melissa
neill
norm
phillip
phillips
pickford
pixar
pleasing
rendered
scoop
screw
shopping
shouting
tempted
timberlake
tunnel
vibrant
wig
##ano
##ara
##car
##ceived
##chen
##cker
##gard
##iki
##lined
##lk
##ston
##tary
##uary
##uise
##uller
##ume
##vis
ambition
anton
backwards
belt
bend
blatantly
bondage
bridges
camcorder
christie
claude
depends
deserving
doctors
election
georges
glamorous
hilarity
immature
incidentally
inhabitants
institution
item
lift
mathieu
organized
publicity
ritchie
rope
salt
screwed
shaking
sharing
static
strings
surgery
symbolic
toronto
towers
traffic
transformed
uma
vanessa
weather
wendigo
winchester
wire
##acy
##carnation
##cho
##conscious
##dles
##ected
##erate
##ifying
##kers
##minates
##ody
##ole
##poon
##pse
##rest
##rity
##urb
##urity
##urry
##vent
##verted
affleck
alley
arc
assassination
audrey
authorities
bombs
boyer
breakfast
centre
chamberlain
charlton
cheer
computers
concepts
continually
coupled
damaged
dandy
debate
departure
destined
detectives
differently
disorder
dudley
dvds
excess
exploring
feat
frames
goers
gunga
insightful
keen
knightley
lasting
layers
leather
mermaid
messy
minority
mirrors
natives
nope
oriented
outdated
partially
pc
programs
punches
remove
satirical
schools
shorter
smiles
spree
stumbles
swept
threatened
thrilled
ton
vocal
voted
wax
##ado
##dal
##dly
##gated
##givable
##ility
##los
##loth
##nds
##night
##ona
##outs
##rlin
##uch
##ulse
##uming
##vated
1990s
1991
1994
4th
accurately
alexandre
bars
bates
bogus
braveheart
btw
carlito
casts
commenting
deer
duration
fifth
fishburne
formed
goldsworthy
handles
hangs
hides
holocaust
homicide
hum
huston
inspire
landed
lifeless
mannerisms
mercy
milo
mitch
moe
mon
natalie
neurotic
newer
niece
nina
northern
pacific
preferred
profession
proving
racing
razor
sorely
suggestion
tara
token
trials
triangle
trier
uniformly
wanders
windows
##ake
##aun
##balls
##bbing
##ceive
##fies
##inations
##kar
##lect
##lerance
##nder
##nee
##nial
##ouri
##rah
##rat
##rising
##rix
##roc
##rting
##shing
##ucci
##uting
##vier
##wned
1974
1977
altered
armstrong
audition
biblical
bowl
brooding
buzz
cartoonish
cbs
choosing
clara
conrad
containing
creek
demanding
demonic
disastrous
earn
einstein
elevator
eleven
engrossing
entered
errol
evelyn
evolution
exquisite
firmly
forgiven
gable
gilliam
gods
healthy
heels
helpful
hulk
ie
insanity
jared
justified
kazan
liu
mcqueen
mutual
myth
neatly
obtain
outright
predecessor
randolph
rear
refuse
reliable
ripping
seeming
setup
sincerely
skit
sleaze
sleeps
speeches
spies
tapes
tops
undead
vile
wtf
##ali
##aning
##boy
##dad
##eline
##ential
##fits
##ica
##ilation
##lier
##mal
##oes
##ora
##quin
##rays
##rings
##rought
##tal
##tro
##tute
1985
activity
addict
akin
antonio
approaches
artwork
bachelor
banter
bloom
boasts
boris
bsg
candidate
capote
carmen
casino
cedric
cemetery
cerebral
cinemas
conan
cons
contempt
critique
crossing
deliverance
deny
describing
destroys
dim
disgrace
educated
emerge
error
frontal
goldblum
grateful
guards
hats
helpless
highway
injured
insights
joker
judd
kent
label
lampoon
leaders
lex
luis
mason
mesmerizing
miniseries
mixing
nations
owners
paula
poker
potter
preparing
radical
rampage
realities
regards
restrained
rooting
salman
seedy
sergeant
shaped
shell
shepherd
sometime
stare
startling
statue
subtly
survives
topics
tower
truman
vain
walt
##66
##abs
##amine
##crat
##ctor
##dog
##ep
##iss
##lands
##lating
##minable
##minated
##nsible
##nte
##obia
##odies
##oral
##rail
##rank
##ravity
##tender
##tile
##ulent
##walker
##ware
##wl
##xed
##ym
21st
advertised
affects
applaud
bach
bravo
bulk
cain
caricature
coat
compete
contribution
corporation
crashes
dazzling
des
disguised
disgust
dubious
exploits
freeze
giants
gimmick
grounds
growth
hackman
hers
homes
hugely
ingrid
inspirational
internal
jacket
jedi
jill
las
lauren
lean
linear
located
masterfully
masterson
miami
modest
monty
mum
narrow
nominations
origin
owes
photographs
puppets
rapidly
reeve
refers
relentless
repulsive
rides
scarface
scariest
terminator
thirties
thunderbirds
tokyo
unlikeable
vastly
votes
wardrobe
washed
weaker
wrenching
##abu
##ace
##ani
##ately
##ault
##bic
##burg
##cer
##delity
##easy
##eral
##formed
##gian
##gie
##hop
##ills
##itt
##lal
##lers
##lings
##lord
##lous
##loy
##luth
##nell
##raw
##rit
##sted
##tail
##tains
##umption
##uously
##urf
##volve
##xual
1959
abruptly
ally
amrita
arab
authenticity
beowulf
bones
butcher
casper
cecil
christina
chronicles
continuing
convicted
convinces
corn
crosby
damned
decline
detract
dread
excellently
expertly
factors
gained
galaxy
gates
harlow
headache
hires
homosexuality
id
inaccurate
insults
irene
juliet
lasts
limitations
mabel
macabre
males
mama
mates
missile
mitchum
motive
natured
ol
origins
painter
parsons
perception
porter
reward
sale
scifi
screenwriters
sniper
sophie
soylent
spine
standout
strengths
stunningly
swallow
undeniably
underwear
unsure
unsuspecting
vehicles
wonderland
yokai
youthful
youtube
##are
##arma
##aves
##bits
##cends
##ctic
##fs
##hic
##hon
##ield
##iva
##ivated
##nders
##nn
##nzo
##oned
##ponent
##rade
##ras
##rgio
##uge
##uin
##uity
##zard
1940s
200
21
accessible
anil
bruno
burke
buys
cafe
cents
cheadle
clash
colleagues
colours
confront
confronted
dealer
definitive
delicious
derivative
disabled
divorced
dominated
earnest
endlessly
energetic
enhanced
entering
entirety
exterior
fatale
feast
garland
gypo
implied
jarring
judgment
kinnear
lance
lend
lennon
lighter
literal
longest
magician
mice
misfortune
mobile
mutant
nbc
nerves
netflix
owned
pirate
playboy
polly
pray
promptly
published
puerto
referring
repressed
residents
resolved
ronald
rookie
salvation
servants
sgt
siblings
sinking
slide
span
spit
stalking
stardom
suburban
supply
teams
toni
tossed
troma
unattractive
underwater
uniform
unimaginative
users
vividly
wander
witchcraft
yep
##ails
##ested
##fuse
##girls
##hel
##iated
##isation
##mitted
##ncing
##nding
##nel
##orse
##pressive
##rised
##rks
##shi
##so
##vic
##vice
##xic
1944
1953
1982
anyhow
approaching
asia
assembled
astounding
bashing
belly
biting
blooded
breathing
bubble
butch
caron
characteristics
cleaning
cries
crisp
cyborg
cypher
depict
depths
devastating
dilemma
dismal
dragons
drinks
erika
estranged
eventual
exit
exorcist
expects
filthy
foolish
glued
grass
habit
harriet
hi
hindi
identical
imo
improbable
inherent
interact
jodie
jules
laurie
lola
loy
meandering
nerve
offbeat
owns
pale
principle
races
readers
respectable
scratch
senior
sensible
separated
severed
sized
snuff
spencer
sticking
stranded
syndrome
tax
thurman
tormented
victorian
wong
wounds
yours
zorro
##acked
##ags
##aring
##ctions
##cut
##ency
##gible
##har
##heads
##hes
##iate
##if
##ilities
##illed
##inate
##ipping
##kovsky
##laine
##lem
##liss
##lla
##logies
##long
##love
##mark
##mation
##nancy
##nous
##nsibilities
##paration
##parts
##pted
##sman
##titution
##ually
##ubs
##ude
##ups
##uth
##volved
##yping
1975
1998
23
adore
answered
appeals
axe
balanced
barbra
basket
berkeley
breakdown
bronte
budgets
cheaply
chopped
classy
clay
concentrate
connor
conveyed
deanna
decidedly
deliberate
demonstrate
dump
dustin
enthusiastic
escaping
esquire
expectation
exploit
expose
filmmaking
flashes
flimsy
fragile
franklin
gentlemen
glaring
hayworth
hippies
immortal
incapable
informed
isolation
jan
judged
laden
lightning
minnelli
miranda
nightclub
noticeable
numbing
odyssey
packs
passengers
pattern
pegg
plotting
pocket
possess
principals
promoted
psychopath
pumbaa
quarter
quentin
reminder
rider
romeo
sand
sf
sought
spectacle
steam
stylized
sublime
subway
timmy
toby
tool
tremendously
turd
ugh
werewolves
wisely
worms
##47
##ables
##ances
##eous
##esh
##ever
##gles
##ibe
##ift
##itious
##ito
##lins
##list
##nus
##ove
##reak
##riad
##rst
##tting
##uid
##umi
##vious
##worthy
##zz
1934
300
absorbing
accepting
accounts
addiction
advised
arguing
attacking
busey
cal
cape
celebrated
clone
collect
colored
combines
contribute
conveniently
copied
crippled
crown
cunningham
debt
destructive
divine
dj
embrace
ensure
excruciatingly
experiencing
fassbinder
freaky
frontier
gamera
goods
hadley
intricate
jealousy
karate
kidnapping
longing
melvyn
messing
moron
ominous
outline
pause
peaceful
pierre
pound
ps
quantum
reports
rescued
reviewing
revolt
rewarding
robertson
samantha
selected
sentimentality
seymour
shepard
sidewalk
spaghetti
stephanie
sydney
ultimatum
updated
vintage
volume
voyage
whiny
##20
##ads
##ages
##alism
##asty
##clusive
##dia
##dowell
##duced
##ement
##enger
##get
##iche
##imp
##lical
##master
##named
##ners
##nium
##olis
##oop
##ously
##pective
##plication
##ponents
##rrows
##rus
##sant
##ttered
##ught
##uz
##vate
##war
##we
##west
##ye
##ziness
adaption
aggressive
aided
anticipated
arguments
arquette
august
aussie
bachchan
bikini
bounty
chill
cliffhanger
collette
comprehend
crashing
cutter
daisy
dame
dashing
delighted
deputy
distract
downs
dukes
establish
establishment
europeans
fairbanks
fleshed
fright
furniture
goals
grandma
hannah
havoc
herman
horny
hybrid
immense
incorrect
indiana
inmates
intentional
jaded
jenna
jewel
juliette
jury
knocks
liam
longoria
morals
niven
obsessive
overblown
parallels
pursue
rainy
redundant
remembering
resulted
ricky
salesman
sanders
sarcastic
slip
stella
stones
stroke
sucker
suspected
swearing
switched
taboo
taped
tendency
theories
thieves
tourist
turmoil
unsatisfying
vanilla
vince
whining
##ading
##ady
##bow
##chu
##cism
##core
##gence
##hart
##inian
##isk
##itch
##kis
##lie
##loat
##logist
##lu
##lves
##nist
##och
##olini
##orn
##part
##pressed
##rook
##sque
##ssed
##trusive
##urable
##urn
admired
adrian
afterward
aiming
alleged
alter
angie
anthology
apply
approached
arranged
arrest
avoiding
backed
begging
bogart
boiled
brainless
canceled
carnage
chiba
climb
clive
clooney
collective
commitment
consideration
cultures
debbie
define
demille
demonstrated
distress
dramatically
dumber
establishing
exploding
fascist
fiancee
fills
ghetto
gielgud
gilbert
goodbye
graveyard
herbert
hyper
insomnia
jacques
jersey
jolie
korea
lang
lavish
lethal
mormon
morons
mouthed
mystical
optimistic
overboard
papers
passage
peculiar
polish
predictably
psychologist
puzzle
realization
rebellious
rivers
routines
rowlands
sang
sarandon
schneider
serum
shift
shootout
sixth
slaves
slugs
spice
stream
subtext
thelma
tolerable
trace
traits
upside
vega
virtual
wielding
wine
##64
##aling
##bal
##ban
##box
##break
##cid
##cles
##cting
##ein
##elia
##eville
##forms
##icing
##ipes
##itate
##iti
##lea
##mind
##oding
##ores
##pression
##raph
##read
##ronic
##ships
##tches
##ugging
##umble
##uo
##usted
1967
achieves
acquired
anytime
arkin
arriving
beckinsale
borders
chong
coke
colman
commits
consciousness
contributed
courtroom
crosses
cuban
dahmer
distraction
diverse
document
duel
elliott
enhance
excuses
explodes
exploited
feminine
fools
freaking
georgia
gershwin
gibson
gloria
haines
hateful
hooper
horrified
insist
iturbi
kathy
leap
lionel
lunch
madsen
marilyn
medieval
mentor
mole
monologue
mouths
mythology
newcomer
olds
owl
pad
pedestrian
penelope
phenomenal
pirates
populated
poses
puppy
python
rea
relentlessly
remembers
respects
reviewed
ritual
sammo
scored
seasoned
settled
shoe
sickening
skilled
skinny
slapped
smash
sources
strict
sunrise
symbol
trains
tuned
unsympathetic
update
vanity
verbal
verdict
wheel
whites
wiped
##aif
##ania
##bar
##cally
##ceit
##din
##dor
##ducted
##elie
##erous
##fic
##gic
##iley
##kie
##ology
##ool
##osh
##pped
##ramer
##rove
##tension
##tine
##ugged
##umbling
##umps
##urous
##ven
##vest
1992
85
amidst
attending
awakening
bonnie
cannes
cigarette
circles
clerk
contestants
controlling
cooking
covering
defies
deliciously
delightfully
denise
diary
dillinger
doyle
drab
dynamics
employee
encountered
expense
explosive
fallon
feeble
flavor
flock
flower
fluid
forties
foundation
fried
gooding
guinea
hooker
hoot
immigrant
instincts
introducing
invention
ira
israeli
keys
laputa
legitimate
lowe
lucille
martian
meal
meantime
mortal
moss
motorcycle
mute
mysteriously
novelty
nuances
nun
olivia
otto
pathos
pfeiffer
phase
planes
policy
posing
possesses
possession
predator
professionals
psyche
pushes
ranch
readily
regularly
republic
resume
romances
sailor
satisfaction
seductive
sells
sheen
shockingly
suggesting
sundance
tactics
themed
um
vomit
wash
weary
wheelchair
##adar
##amp
##ango
##arvin
##asa
##ashed
##bre
##cative
##ccupied
##cending
##ciation
##dily
##elle
##encing
##erable
##front
##giving
##hile
##hn
##igans
##ika
##ires
##iver
##leton
##mical
##nsation
##oks
##ond
##onymous
##pses
##ptic
##rap
##rming
##rude
##tent
##tility
##udes
##uire
##ulations
##ulsion
##uman
##upt
##wee
##zling
##zzled
101
1948
abandon
additionally
admitted
aftermath
agony
alot
anxious
arrow
arty
assignment
attended
auto
beg
biker
cameraman
centuries
cindy
columbia
consequence
consist
convention
creasy
darth
debra
deciding
deed
degrees
denouement
detroit
discussed
dumbest
dumped
economic
embarrassingly
excruciating
fanatic
followers
forgetting
frances
frog
fuzzy
goldie
gwyneth
idol
inaccuracies
indifferent
instances
intact
juan
july
kris
lends
medicine
meteor
motions
narrated
neglected
noteworthy
ny
ordeal
parking
produces
products
pros
pursued
rapid
releasing
reverse
rosario
screwball
sebastian
serials
shah
shifts
sided
sondra
starters
statements
steer
stern
swinging
targets
tcm
tho
tickets
tomei
truths
unusually
vera
viewpoint
void
wastes
wider
##all
##berry
##certain
##citing
##edly
##enia
##ense
##epper
##factory
##geyman
##girl
##ground
##guard
##hearted
##icism
##inda
##inson
##lf
##lot
##mented
##mers
##mie
##nces
##nished
##nsion
##olves
##pa
##pic
##quire
##ramp
##rieve
##ruct
##struck
##tick
##tore
##uits
##ulates
##wers
##will
abound
adele
ambitions
artistry
begs
begun
breast
brow
cab
campus
cap
casablanca
click
cody
coffin
compliment
consequently
controversy
corey
criticize
crossed
cycle
daylight
distracted
dominic
edison
edith
eli
enigmatic
executives
factual
flames
flavia
fleet
frantic
funding
galactica
gallery
geek
godard
goodman
graduate
greene
grip
incidents
inclusion
indicate
informative
intro
invite
kidnap
likeable
macdonald
manners
meyer
mick
misunderstood
muslims
northam
obstacles
originals
pains
phoenix
rational
rejects
rice
roughly
ruining
sarcasm
scripting
sentences
session
shaggy
simpsons
slim
snipes
snowman
soprano
stabbed
stating
suspicion
tomb
toned
trigger
unanswered
visconti
warns
wayans
wright
##aint
##ctive
##del
##dered
##falls
##feld
##ference
##gal
##gregor
##icient
##ience
##iko
##illian
##ington
##licted
##logue
##lucky
##mony
##mund
##ortions
##pian
##pond
##rath
##rative
##rg
##rot
##sin
##taker
##tends
##test
##uc
##unced
##vern
##vet
##wick
##wind
abortion
alliance
ambiguity
antagonist
apple
apt
bait
beckham
blamed
bosses
brat
chamber
collins
coma
combs
convict
county
cow
delirious
depictions
destination
determination
dreamy
duh
eagerly
enchanted
envy
exclusively
fellini
festivals
foil
frozen
gap
geisha
generate
giovanna
grabbed
guardian
hayes
heath
hmmm
hostel
intensely
investigator
iranian
johansson
kathleen
maureen
mccarthy
mock
momentum
murky
paints
pans
paranoid
pen
playwright
plodding
pointing
protest
rambling
realistically
redneck
reiser
relating
relevance
replies
rips
robbers
rodriguez
saloon
schedule
seats
sho
shore
sly
stalked
stance
stardust
sterling
stiles
stink
surroundings
sweat
sweden
therapy
translate
uncanny
uniforms
varied
vonnegut
##ama
##ams
##aul
##bel
##cil
##ckey
##era
##hat
##holm
##igo
##iston
##lient
##liness
##losure
##nack
##oom
##ote
##ots
##plant
##pts
##rified
##shaw
##ully
##vers
1943
1951
apocalyptic
awareness
barney
baron
bats
battlestar
bauer
bennett
blaise
bleed
brett
brides
brooke
burnt
capacity
characterisation
coburn
collector
comeback
communication
composition
convent
curiously
dafoe
diaz
diner
dismiss
du
entrance
faux
feinstone
finney
foremost
fruit
gackt
gaps
gestures
gigantic
glance
glimpses
goat
grendel
gus
handicapped
hawn
hmm
hostage
hysterically
ignoring
imaginary
injury
isabelle
lastly
launch
lens
linked
lopez
loren
lunatic
lurking
mandy
midst
myrtle
natali
necessity
occult
october
omar
overs
parrot
participants
paths
periods
phones
politicians
precise
quasi
randall
rehash
replacement
resembling
resistance
revolving
rewarded
rohmer
rounds
rupert
russo
scarlet
scenarios
sensibility
services
sg
shotgun
sights
sketches
slater
sonny
sunset
talky
traps
veterans
warden
widowed
ww2
##ala
##astic
##aval
##brow
##ceptive
##ckle
##creen
##duce
##duct
##ental
##erland
##gid
##gler
##icking
##inger
##ique
##ired
##isle
##istol
##lby
##lled
##mad
##mise
##mous
##oming
##ong
##ooo
##pend
##put
##rator
##rns
##sal
##sar
##standing
##star
##tect
##thetic
##thing
##tinent
##tract
##udi
##ugs
##uni
##voked
##vous
##wards
##writing
1932
1955
1963
aaron
addressed
ajay
ample
angelina
anita
apocalypse
applied
applies
avid
bearing
benefits
benjamin
biopic
blandings
blockbusters
brent
brien
cena
characterizations
cheers
complications
diego
dynamite
eh
epics
evans
existing
extensive
ferrell
fuel
gathering
gino
girlfriends
gloomy
gosh
hating
haunt
hines
hinted
homicidal
ignores
imagining
incest
ins
iq
jagger
jar
je
joking
jude
kells
kristofferson
laboratory
locke
maintains
marisa
martino
masked
massey
meredith
mins
misty
nightmarish
nuanced
offend
olsen
overbearing
payoff
pilots
pivotal
platform
popped
pressed
prophecy
psychedelic
qualify
reflected
revival
rolls
safely
shahid
sheets
shin
silverman
sins
slashers
smell
sparks
stadium
stake
studied
substantial
sufficient
supreme
targeted
tightly
tire
trauma
unclear
unstable
upcoming
vignettes
voyager
watcher
whore
##ael
##ahan
##alta
##ards
##arily
##asco
##azes
##bb
##bound
##cht
##cope
##cript
##door
##eze
##far
##fare
##fi
##gging
##hh
##hical
##hin
##how
##itors
##ived
##iz
##lied
##lland
##lund
##lving
##nation
##nse
##nsive
##oda
##oking
##olk
##oration
##pass
##pets
##ployed
##rawling
##rents
##ride
##rol
##run
##teria
##tics
##titled
##ulu
##urring
##vist
##wise
1958
27
acknowledge
announced
array
artemisia
assure
baddies
beard
bernsen
bias
bonanza
boo
boogie
boots
boundaries
brashear
candle
caretaker
carlos
choir
clunky
collar
controls
courtesy
coward
disco
diversity
divided
doug
drowned
enchanting
engine
excellence
exploitative
fart
favourites
flag
fortunate
frost
gannon
gorilla
interior
interpretations
interrupted
interviewed
invested
lo
madeleine
mannered
marcel
marine
marked
maximum
merry
murderers
nauseating
novelist
nutshell
observation
observations
observe
orchestra
organization
outlandish
peril
phantasm
plate
pornography
pose
profile
protection
questioning
rebels
relying
repeats
reserved
resolve
reunite
rourke
russ
skeptical
slower
sour
stabbing
stations
stereotyped
thailand
turkish
turtle
unfolding
upstairs
valid
versa
visitor
vivian
weekly
witnessing
##10
##65
##abby
##actic
##cio
##ckless
##culate
##erick
##ffer
##ggy
##helmed
##hops
##iers
##illon
##iral
##iro
##itable
##iya
##kov
##ku
##lausibility
##mail
##making
##mn
##mps
##nge
##nks
##osing
##osis
##ound
##oz
##pan
##pie
##piring
##ployment
##rand
##rer
##rial
##rment
##rouse
##rth
##ruder
##saw
##sian
##sport
##thy
##tire
##uis
##una
##uso
##volving
##wart
##wk
##yke
26
accidental
admits
ala
arrogance
bittersweet
blazing
bonham
bust
chandler
chaotic
chew
chewing
chuckles
climbing
cocaine
colleague
commanding
commendable
conductor
confined
counting
criticized
crushed
customers
daytime
deemed
displaying
duchovny
enduring
entries
ernie
evokes
famed
finishes
fundamental
garfield
govinda
guevara
harrowing
inadvertently
insert
inter
jackman
janet
landmark
luzhin
madison
magically
manipulation
monica
monotonous
neal
needing
ninety
nora
obscurity
palm
pecker
peggy
portuguese
preaching
progressed
projected
raging
reagan
realises
riff
rightly
ripoff
samuel
sanity
sara
satanic
scarecrows
seduce
sheep
sherlock
shocks
sholay
similarity
sincerity
slavery
smug
somethings
spade
spotlight
strung
substitute
thereby
thrust
thunder
tones
travis
trivial
unappealing
understatement
unhinged
unnatural
ursula
vargas
villainous
waking
wartime
wrestler
##57
##active
##ades
##after
##aud
##bies
##bird
##caring
##cation
##check
##culated
##dom
##eb
##ello
##gi
##hai
##hane
##heart
##hoo
##iant
##iard
##inity
##inpah
##iously
##isplaced
##istically
##itivity
##jection
##lane
##lis
##lore
##mobile
##nan
##ociate
##oh
##ooth
##passed
##played
##raged
##redited
##rek
##rence
##ressive
##rical
##rop
##stly
##tached
##tted
##uk
##urray
##ursing
##vability
##vour
##wi
##ykes
2009
accompanying
achievements
admirer
aesthetic
article
atlantic
barker
bean
beers
belle
bert
burial
camping
cancelled
caprica
castro
celebrities
characteristic
charges
cheerful
chip
chloe
clarity
climatic
comparable
contestant
convenient
crooks
dallas
dangerously
deathtrap
deeds
depardieu
desk
despise
devotion
discipline
district
dreaming
dreyfuss
eagle
egyptian
elsa
explode
fetish
file
filmography
finishing
flame
forgets
forgiveness
glossy
goings
hallmark
hardened
harron
herd
hobgoblins
hostile
howling
hugo
incestuous
jo
kaufman
kirsten
krueger
lara
layered
laying
liotta
motel
myrna
participate
penned
perverted
pizza
protective
quintessential
ram
recover
redford
reluctantly
remark
reminding
rendering
scarlett
scheming
seattle
segal
serbian
seth
shameless
shred
sitcoms
sophia
spoiling
spontaneous
stuffed
stumble
subsequently
suzanne
sylvia
takashi
tashan
testing
tide
traditions
transparent
traumatic
understandably
unfamiliar
voodoo
wee
wholesome
yell
zodiac
##38
##49
##54
##cite
##con
##covered
##cture
##ects
##eo
##ern
##erson
##firmed
##gies
##het
##ianni
##ienced
##ienna
##imate
##ination
##iny
##itches
##juana
##lerate
##lit
##louds
##lta
##manent
##meanor
##nap
##ndy
##nings
##nizing
##nsate
##nza
##oach
##odic
##ography
##oked
##oran
##oring
##pending
##pier
##plied
##pollo
##rations
##rection
##ritten
##rosity
##rton
##sue
##tained
##tant
##tically
##tled
##ttes
##uaint
##udy
##uish
##urgeon
##ution
##vail
##zel
1000
1946
abundance
admission
affecting
almighty
annoy
awry
babes
beforehand
betrayed
bloodbath
booth
busby
byron
captivated
cells
cheering
conclusions
considers
constraints
coolest
cracks
creations
defining
digging
distributed
dragging
drift
drowning
ealing
earliest
ernest
espionage
excels
facility
faded
fades
faye
fires
flashing
flip
flows
fraud
fritz
gangs
gena
grandpa
grin
gypsy
han
hanzo
henchmen
holt
hunted
ideals
imho
implies
infinitely
informer
inserted
jabba
joint
juice
kindly
kinski
letdown
license
lubitsch
mamet
meadows
melancholy
melbourne
miraculously
monks
monroe
oblivious
oprah
orphan
pee
philo
pia
polar
pornographic
practical
preacher
proceed
prop
raid
rampant
raunchy
rebellion
redgrave
regime
relaxed
restraint
rivals
ruled
runaway
sack
sales
salvage
se
semblance
senator
sexist
shameful
shannon
sheridan
sickness
slut
summed
sunk
surround
taut
temper
tess
tits
titular
tools
unconventional
unnecessarily
val
verge
warehouse
wesley
whimsical
##!
##"
###
##$
##%
##&
##'
##(
##)
##*
##+
##,
##-
##.
##/
##:
##;
##<
##=
##>
##?
##@
##[
##\
##]
##^
##_
##`
##{
##|
##}
##~
##¡
##¢
##£
##¤
##¦
##§
##«
##®
##°
##·
##»
##¿
##æ
##ð
##ø
##–
##‘
##’
##“
##”
##⁄
##₤
##
