[NULL]
[END]
[START]
a
b
c
d
e
f
g
h
i
j
k
l
m
n
o
p
q
r
s
t
u
v
w
x
y
z
the
and
of
to
is
in
it
this
that
br
was
as
##s
for
with
movie
but
film
on
not
you
are
his
have
##br
he
be
one
its
at
all
by
an
they
from
who
so
like
her
just
or
about
has
if
out
some
there
what
good
when
more
very
even
she
my
no
up
would
which
only
time
really
##ing
story
their
were
had
see
can
me
##ed
than
we
much
well
been
get
will
into
also
because
other
do
people
bad
great
first
##ly
how
most
him
dont
made
then
movies
films
make
could
way
them
any
too
after
##d
characters
think
watch
##y
two
many
being
seen
character
never
little
acting
where
plot
best
love
did
know
##e
life
show
does
ever
your
still
better
over
off
these
end
##er
say
while
here
man
why
scene
such
scenes
go
should
something
through
im
back
those
doesnt
##a
real
watching
years
##r
##t
though
now
thing
actors
didnt
another
new
actually
before
nothing
makes
find
work
funny
look
few
old
going
same
every
lot
us
part
director
again
thats
cant
quite
cast
want
pretty
things
##i
seems
##o
young
got
around
fact
however
down
world
take
enough
both
give
ive
may
between
big
horror
original
thought
own
without
gets
always
series
##es
right
isnt
long
saw
come
almost
##n
times
theres
least
point
role
action
interesting
must
whole
bit
comedy
family
music
done
script
last
hes
might
anything
guy
since
minutes
feel
far
probably
performance
am
kind
rather
##on
worst
yet
away
sure
tv
making
##l
woman
girl
each
found
fun
played
anyone
having
our
although
believe
comes
trying
course
especially
goes
day
looks
hard
shows
different
put
wasnt
place
maybe
book
once
set
main
reason
money
sense
worth
everything
looking
true
ending
someone
watched
plays
job
actor
seem
three
dvd
said
screen
takes
together
instead
play
john
during
beautiful
later
effects
himself
everyone
##al
version
left
seeing
special
audience
##ness
night
excellent
house
american
idea
nice
simply
wife
shot
youre
read
high
##ers
year
black
completely
less
second
kids
help
else
poor
star
fan
war
used
given
try
father
death
##man
friends
need
rest
use
enjoy
home
men
performances
mind
short
classic
until
either
##ic
truly
##an
along
hollywood
boring
half
dead
wrong
##in
##h
tell
production
line
women
remember
couple
came
next
recommend
start
perhaps
full
let
understand
wonderful
stupid
getting
others
mean
moments
awful
playing
episode
keep
terrible
camera
##k
small
definitely
gives
often
stars
doing
sex
early
video
perfect
become
##and
finally
name
felt
school
face
##m
human
supposed
couldnt
liked
lines
dialogue
piece
person
itself
lost
top
absolutely
yes
case
against
entire
went
certainly
written
live
title
shes
waste
sort
head
budget
hope
problem
style
several
overall
picture
loved
evil
id
mr
worse
fans
becomes
entertaining
boy
cinema
beginning
seemed
white
already
based
despite
care
oh
##ion
wanted
dark
example
lives
guys
##rs
killer
unfortunately
mother
throughout
direction
##the
final
##g
friend
##ting
##or
totally
turn
fine
wont
##us
wants
children
amazing
girls
drama
laugh
sound
##en
youll
guess
lead
##ment
##u
##ity
tries
called
humor
low
under
writing
michael
##able
works
##ies
history
turns
able
enjoyed
theyre
behind
past
quality
days
favorite
gave
starts
kill
son
game
act
sometimes
side
##less
town
viewer
parts
horrible
car
actress
##le
child
soon
ones
expect
eyes
##ie
obviously
flick
##c
##p
thinking
directed
themselves
art
heart
brilliant
stories
ill
##ive
decent
highly
run
feeling
genre
myself
##ful
late
blood
stuff
fight
says
close
took
city
except
cannot
##ation
heard
##ling
hand
leave
##it
killed
kid
matter
##ge
police
hell
hour
moment
wouldnt
##ist
extremely
strong
roles
happens
particularly
lack
involved
happened
obvious
attempt
james
told
chance
living
##is
violence
wonder
etc
including
complete
save
##ism
coming
voice
##ts
murder
anyway
##ia
daughter
group
age
looked
please
type
experience
itbr
alone
god
simple
none
number
score
exactly
slow
happen
shown
ago
ok
lets
interest
whose
brother
taken
usually
serious
david
across
hours
cinematography
stop
annoying
running
somewhat
opening
sad
song
known
ends
musical
usual
finds
possible
career
hit
gore
wish
yourself
released
started
huge
relationship
seriously
scary
jokes
change
order
saying
crap
mostly
reality
shots
##nt
cut
ridiculous
robert
today
english
episodes
major
taking
hilarious
cool
novel
##z
body
female
talking
opinion
call
##ry
apparently
directors
strange
due
basically
hero
important
supporting
clearly
documentary
knows
power
knew
events
happy
rating
view
##ch
husband
turned
songs
talent
arent
level
king
british
easily
room
single
tells
local
attention
word
moviebr
bring
##as
whats
problems
words
cheap
modern
silly
##ble
beyond
television
sequence
disappointed
whether
jack
light
falls
four
future
sets
five
paul
similar
miss
country
##ne
appears
needs
earth
giving
romantic
upon
comic
richard
viewers
predictable
george
talk
entertainment
havent
review
within
##est
feels
nearly
mention
message
animation
enjoyable
bunch
filmbr
lady
lots
theater
add
rock
storyline
##but
actual
##ally
above
moving
using
points
middle
surprised
named
theme
ten
herself
mystery
among
dull
begins
comments
##ce
ways
writer
fantastic
typical
##f
stay
sequel
showing
york
easy
elements
certain
team
thriller
tried
clear
effort
fall
near
avoid
release
hate
french
famous
tale
means
parents
somehow
sorry
leads
straight
peter
##ter
kept
red
buy
working
greatest
dialog
##ty
season
doubt
class
form
soundtrack
editing
general
##te
##ton
brought
sister
weak
tom
##x
filmed
figure
##ted
feature
oscar
##ra
minute
whos
##re
gone
hear
check
material
particular
viewing
learn
realistic
imagine
youve
eventually
##id
th
eye
atmosphere
fast
move
reviews
decided
sequences
##ian
forget
period
possibly
##nce
deal
lame
third
became
dance
de
follow
lee
premise
space
wait
indeed
stand
japanese
sit
zombie
difficult
##ish
poorly
die
expected
sexual
whatever
##b
##ine
surprise
writers
##ant
crime
nor
nature
average
rent
suspense
leaves
subject
##ate
okay
stage
killing
truth
believable
screenplay
filmmakers
needed
##led
##na
dr
note
reading
meets
meet
begin
##ar
##ent
question
boys
##el
joe
romance
##um
forced
realize
street
emotional
otherwise
memorable
##ous
unless
older
shame
superb
write
baby
earlier
interested
keeps
situation
weird
disney
whom
##st
##ated
beauty
credits
dramatic
features
footage
##ized
towards
ask
badly
dog
total
crazy
hot
previous
brings
sounds
comment
male
plus
personal
plenty
##sbr
incredibly
worked
society
directing
admit
cheesy
perfectly
quickly
result
##ping
deep
unique
america
free
return
##up
creepy
laughs
##os
development
##ve
appear
leading
hardly
brothers
meant
open
hands
imdb
apart
mark
casting
various
create
effect
remake
setting
christmas
##ck
potential
background
battle
bill
mess
scifi
dream
forward
monster
powerful
##et
portrayed
##ley
inside
outside
business
fairly
la
##tion
expecting
ideas
manages
deserves
fails
jane
attempts
missing
political
present
secret
twist
fire
##ped
dumb
fighting
unlike
##like
fantasy
air
gay
pay
##der
ben
joke
william
recently
front
further
rich
married
nudity
masterpiece
##dy
copy
reasons
box
match
agree
sadly
acted
break
odd
plain
talented
telling
success
western
##il
cute
##ll
pure
villain
incredible
missed
girlfriend
doctor
##he
caught
crew
following
cop
decides
social
large
considering
waiting
mentioned
sees
##am
members
##w
uses
flat
##v
ended
hold
popular
slightly
public
suddenly
wasted
compared
pace
neither
sweet
spent
wrote
##ey
entirely
kills
rate
created
intelligent
familiar
office
##ving
audiences
cause
era
ultimately
bored
clever
convincing
scott
tension
escape
party
visual
##ns
##ring
moves
basic
cartoon
##ma
biggest
credit
list
mary
fear
revenge
##land
consider
laughing
recent
successful
##out
spirit
island
##de
gun
spend
trouble
positive
violent
choice
cover
dancing
appreciate
books
cold
died
former
science
speak
water
zombies
##its
filled
singing
concept
portrayal
younger
produced
solid
value
adult
exciting
bizarre
common
state
amount
focus
werent
animated
walk
##da
amusing
band
effective
language
showed
##son
##ut
german
italian
fit
producers
follows
runs
van
##ary
##tic
considered
##la
impossible
impressive
##th
cat
chemistry
decide
store
tone
pointless
won
company
##ging
barely
depth
somewhere
win
##ure
control
mad
prison
situations
studio
college
leaving
project
sick
respect
changed
force
recommended
hair
##ds
aside
starring
surprisingly
awesome
century
tony
trip
failed
generally
likes
longer
planet
charming
shooting
involving
questions
slasher
##ner
honest
##way
trash
thanks
disturbing
immediately
accent
images
literally
spoilers
steve
##istic
bought
utterly
values
ghost
south
fake
touch
##ir
##ons
jim
magic
pictures
natural
conclusion
glad
west
ability
pathetic
sitting
adaptation
aspect
frank
honestly
adventure
computer
##ur
appearance
explain
culture
fair
normal
camp
cult
personally
stick
alive
knowing
catch
tough
added
remains
##ors
dad
meaning
rare
detective
thinks
yeah
appeal
sam
army
humour
silent
genius
beautifully
##ro
attack
managed
military
terms
##ard
##bly
##ta
equally
sexy
taste
thank
walking
##ding
garbage
harry
smith
soldiers
standard
dreams
london
subtle
twists
comedies
journey
loves
nowhere
pick
##cy
terrific
complex
naked
purpose
touching
likely
nobody
woods
##ial
channel
wild
##ke
excuse
lovely
master
mood
surely
fully
plan
##ny
##ps
chase
thus
narrative
cinematic
contains
road
##age
##ged
##well
central
constantly
fiction
themes
issues
outstanding
pass
slowly
unbelievable
##fully
week
youd
##ned
batman
brain
self
chris
innocent
painful
presented
thrown
##ating
disappointing
##line
##ning
historical
presence
##ls
##this
animals
christopher
date
marriage
mysterious
charles
laughable
stunning
besides
hoping
impression
shoot
##tive
club
costumes
critics
minor
places
##ite
bottom
edge
mistake
stands
##at
##ue
details
makers
##ler
##king
##to
indian
justice
photography
sent
soul
stewart
##les
charm
##ions
##go
aspects
door
makeup
boss
brief
finish
heavy
law
ride
exception
government
mainly
vampire
##ance
climax
feelings
support
##se
color
festival
manner
paris
suppose
throw
##by
##ney
##per
##tor
cry
element
expectations
gang
hey
opportunity
pieces
rated
scenery
train
##red
acts
charlie
filming
loud
names
bother
track
victims
fascinating
puts
award
changes
falling
serial
smart
##ize
drawn
emotions
intended
available
##her
tired
##ks
henry
suggest
victim
##my
##sh
church
include
speaking
##time
blue
disappointment
hasnt
building
emotion
twice
confused
likable
followed
hotel
##ier
compelling
wow
appeared
giant
green
motion
students
ahead
developed
dies
everybody
image
million
bruce
kelly
laughed
mans
pain
approach
gorgeous
lacks
st
##ee
difference
forever
impact
share
##io
fellow
hurt
offer
supposedly
fresh
bed
##ious
merely
moral
trailer
wondering
billy
confusing
happening
jerry
proves
bar
finding
funniest
helps
shock
##me
adults
answer
drive
grade
notice
putting
relationships
key
random
system
creative
mix
producer
student
christian
delivers
lighting
mediocre
numbers
spoiler
zero
##ves
damn
jones
ms
murders
noir
opera
born
provides
absolute
paid
summer
thoroughly
##co
addition
alien
content
drug
lived
negative
page
timebr
becoming
event
fell
impressed
park
reminded
seemingly
##ng
land
offers
tragedy
flying
gem
##ering
boyfriend
childhood
flicks
lover
imagination
al
attractive
hospital
lose
stuck
extreme
flaws
holes
ii
race
williams
shouldnt
tragic
agent
americans
arthur
hidden
nasty
rented
six
ugly
held
martin
##men
adds
intense
spot
standards
##ess
alan
folks
rape
afraid
artistic
asks
beat
detail
faces
pull
ray
seconds
super
therefore
turning
filmmaker
games
collection
industry
porn
step
affair
davis
latter
##no
describe
favourite
forgotten
shocking
states
angry
onto
picked
seven
teenage
##ss
actresses
brian
led
ready
redeeming
count
design
dirty
mom
##one
area
deliver
##ties
##un
##ze
compare
information
soldier
wooden
allowed
carry
queen
location
lord
struggle
thin
allen
chinese
clich
includes
inspired
news
personality
stephen
willing
##iness
##rate
apartment
ground
helped
jason
moved
animal
bond
deeply
desperate
fashion
intelligence
martial
wars
wonderfully
castle
listen
quick
##field
##j
##ments
criminal
direct
don
food
grace
member
professional
uncle
##ably
began
captain
cops
rarely
scientist
todays
trust
cgi
clothes
creature
double
humans
##ence
introduced
mental
phone
worthy
comedic
independent
necessary
plane
theatre
wearing
##uous
allow
anymore
fox
realized
tears
##ans
apparent
commentary
drugs
superior
technical
treat
unusual
##ti
dying
energy
physical
provide
ship
sky
wall
##bs
continue
desire
epic
normally
tim
danny
nightmare
stone
##ay
arts
douglas
mouth
remarkable
sight
##que
accident
filmmaking
limited
powers
returns
ring
scared
accept
bloody
heroes
holds
reminds
station
witch
##tte
engaging
pleasure
search
suspect
##ky
actions
brutal
intriguing
surprising
warning
wedding
according
build
clichs
hated
machine
teacher
wanting
academy
asked
disaster
fred
russian
whatsoever
grand
johnny
pacing
sat
skip
sleep
unnecessary
##house
##ily
##rated
constant
finished
##hip
andy
bits
vision
##nes
anybody
extra
ie
joan
nicely
religious
##ities
##lo
absurd
artist
heres
legend
originally
process
suicide
ed
growing
lies
passion
anywhere
blame
monsters
roll
suit
gotten
joy
killers
lovers
media
toward
dangerous
deserve
explanation
faith
ladies
##ger
##ms
##ot
##ster
eddie
instance
jeff
met
players
watchable
##ched
##do
##tt
##uring
dick
kevin
memory
unknown
villains
whilst
##ah
##ded
hadnt
higher
quiet
somebody
winning
##use
torture
##ct
accurate
capture
heads
nick
smile
starting
##op
cars
jump
pilot
superman
creating
heaven
hopes
##ations
##ible
adam
community
dressed
exist
fail
featuring
guns
jr
river
##ists
responsible
##ration
fights
friendship
teen
##rd
england
jesus
prince
pulled
record
saved
tarzan
vs
worlds
european
jean
keeping
months
moon
##izing
lowbudget
reviewers
taylor
terribly
understanding
explained
kinda
manage
mixed
treated
##gs
finest
hits
knowledge
memories
numerous
radio
whenever
delightful
judge
loving
peoples
thembr
fat
gene
issue
jackson
lacking
officer
player
pop
price
private
vhs
weve
##ft
##gy
bland
discover
unfunny
##ery
##ill
deserved
eat
forces
mike
prove
psychological
sucks
##ming
floor
horse
japan
loose
pretentious
regular
screaming
##ens
##ud
field
included
loss
ordinary
sign
streets
witty
##ved
broken
driving
drunk
empty
heroine
opposite
spanish
cable
cage
dated
humanity
loses
portray
saving
##ad
##ris
bright
conflict
naturally
noticed
opens
skills
##ates
aware
bigger
cuts
breaks
calls
discovered
locations
talents
blonde
continues
dealing
deals
essentially
golden
international
partner
scream
visually
wind
##ver
captured
curious
fate
humorous
jimmy
morning
soap
theyve
visit
werewolf
youth
##cing
##ified
##ka
ball
length
magnificent
mine
morgan
concerned
connection
current
debut
gags
gold
kate
miles
plots
realism
traditional
##ise
genuine
nonsense
occasionally
received
results
shallow
##ha
##ual
advice
allows
frankly
murdered
perspective
rubbish
satire
sean
sing
anthony
below
fathers
genuinely
versions
##ba
##head
##ina
##mer
bob
gary
learned
national
##ball
behavior
washington
##dle
##ward
bank
blind
grew
kong
lesson
mrs
proved
##ys
context
corny
mission
revealed
rob
santa
segment
stock
welles
##back
cameo
keaton
sheer
sudden
ultimate
unable
underrated
vampires
##den
##ile
##oo
shop
unexpected
visuals
##lin
##pt
albert
develop
favor
finale
ford
formula
meanwhile
##ical
himbr
jennifer
owner
remembered
steal
thisbr
ages
ann
brilliantly
efforts
harris
luck
reach
references
study
survive
cross
decade
eric
gonna
identity
logic
sea
singer
village
window
awkward
desert
discovers
ice
passed
program
##ice
crappy
dan
sisters
spectacular
strength
utter
wise
##pe
candy
gangster
grant
majority
standing
steven
##ters
awards
board
delivered
existence
flashbacks
leader
sake
stereotypes
types
##gan
##ress
bet
creates
##if
##ker
##rn
caused
insane
lake
lucky
ran
reaction
relate
robin
##ches
##ld
##ri
##ville
daughters
dreadful
foreign
graphic
gratuitous
meeting
painfully
pair
speed
sucked
trek
devil
edited
fault
foot
pleasant
practically
relief
boat
emotionally
families
travel
##au
##ened
##ul
author
endless
nevertheless
technology
comparison
decision
freedom
native
overly
reviewer
simon
site
thomas
twenty
aka
ancient
anime
assume
barbara
combination
described
failure
portrays
seasons
##day
##town
##ute
attitude
feet
president
proper
rules
test
##be
##ber
brown
hearing
parody
treatment
vehicle
wide
##ff
##rt
asking
bear
buddy
choose
eating
halloween
howard
portraying
post
range
sell
stopped
##ni
##tle
##zed
allbr
believes
capable
chosen
drew
executed
hitler
laughter
learns
luke
marry
uk
##im
##not
anna
commercial
daniel
evening
excited
fill
gory
involves
largely
lynch
tape
##ca
broadway
classics
grow
produce
recall
religion
wood
##sing
model
product
theatrical
wit
##berg
##ow
##py
center
contrived
entertained
haunting
kick
parker
round
sheriff
theaters
unrealistic
victor
clue
depressing
levels
rise
ruined
storybr
strongly
suffering
##mi
appealing
built
contrast
extras
freddy
irritating
joseph
rescue
rose
sequels
woody
claim
costs
handsome
heck
onebr
destroy
individual
losing
matt
research
shakespeare
sports
sympathetic
captures
clean
disgusting
embarrassing
evidence
generation
protagonist
talks
##hing
##rk
##work
appropriate
chick
chief
dry
facts
fame
hill
matters
patrick
tend
thatbr
vote
##med
alex
canadian
hanging
hunter
##ron
asian
bringing
cares
exploitation
football
grown
hopefully
naive
virtually
voices
##sy
costume
haunted
horribly
jackie
obsessed
relatively
roy
scare
thoughts
training
walks
##off
##rating
bomb
convinced
fits
france
louis
lousy
mask
oliver
pity
priest
promise
safe
saturday
spoil
steals
##ford
##ick
##va
correct
cost
frame
insult
teenagers
till
walter
##iest
##ised
##ten
creatures
crowd
dogs
mebr
ryan
teenager
##ain
##ator
##away
##ol
depicted
dubbed
europe
excitement
fly
halfway
initial
satisfying
send
wellbr
yearold
##life
##sed
amateurish
angel
cash
cinderella
gordon
psycho
remain
united
winner
##ak
anne
contemporary
germany
hide
holding
influence
lower
nancy
tedious
texas
tiny
asleep
bodies
circumstances
cowboy
lewis
nominated
soft
substance
unfortunate
unlikely
weekend
##ries
baseball
closer
continuity
danger
flesh
lawyer
marie
presents
touches
viewed
##mo
##used
australian
drag
max
provided
serves
trilogy
witness
##ians
amateur
brave
cartoons
fool
handled
reporter
shocked
sons
suffers
weeks
##ass
##ings
category
fare
fu
refreshing
repeated
roger
ruin
seat
source
structure
surreal
wayne
##who
accidentally
africa
chose
deaths
display
hunt
latest
offensive
pile
plans
politics
promising
supernatural
##li
##tes
angles
market
north
robot
sinatra
studios
surprises
warm
welcome
bugs
claims
colors
overthetop
previously
qualities
realizes
speaks
target
##ins
##ok
accents
adventures
convince
deadly
edward
experiences
granted
harsh
artists
covered
designed
factor
storytelling
##ach
##des
##play
believed
draw
hall
lesbian
movement
recognize
rental
service
skin
speech
universal
veteran
whoever
wouldve
degree
highlight
mainstream
professor
routine
victoria
columbo
enter
hat
kim
mistakes
occasional
propaganda
rain
uninteresting
##let
##vy
aliens
directly
guilty
magical
minds
outbr
peace
struggling
sympathy
technically
twisted
walked
##ability
##ching
breaking
combined
downright
explains
focused
friday
invisible
kinds
massive
nude
##ub
##wood
committed
inner
paper
princess
print
section
teens
ass
donald
gritty
narration
offered
remotely
##ung
atrocious
enemy
experienced
featured
irish
moore
multiple
prime
sorts
spends
suspenseful
##ino
##so
execution
express
frightening
insight
legendary
lonely
regret
reveal
sharp
treasure
universe
##all
##ited
anger
dollars
exact
figured
figures
forest
forgettable
herebr
hong
passing
performed
reputation
security
variety
##rie
abandoned
abuse
birth
bothered
crash
dozen
fairy
false
fictional
path
prior
rings
stolen
surface
waybr
##ki
##ric
conversation
crying
darkness
eight
ghosts
hired
powell
pulls
spy
subtitles
theory
##ock
##tions
##za
anderson
core
cutting
emma
erotic
isbr
melodrama
mgm
mountain
paced
paint
required
reveals
russell
statement
von
##rm
blow
demons
drop
effectively
gas
hed
significant
stayed
stays
terror
trapped
urban
wilson
crude
grim
paying
slapstick
worthwhile
##ction
##ered
##ory
##ray
##uts
bmovie
buying
clark
dean
focuses
jon
listening
mere
proud
rights
##end
##ire
##kin
##zy
account
african
beach
lights
necessarily
quest
scale
sir
spite
wear
##ap
##you
bus
childrens
forth
grave
heavily
jobs
scares
sunday
titanic
unconvincing
##ena
##lessly
##light
##ncy
##our
##res
afternoon
amazed
andor
caine
clichd
cruel
delivery
department
destroyed
everywhere
facial
julia
network
aint
alice
alright
changing
closing
desperately
driven
imagery
matrix
metal
murphy
san
scenario
sensitive
vietnam
##ising
bbc
belief
blockbuster
code
device
fabulous
faithful
favorites
flashback
forgot
idiot
junk
mature
midnight
mothers
placed
position
reminiscent
ron
rule
skill
sounded
thankfully
##ga
##ished
campy
driver
extraordinary
ignore
interview
mexican
novels
pitt
revolution
seek
stereotypical
suffer
##of
##ude
##ya
amazingly
angle
beloved
blah
california
deeper
dude
examples
greater
happiness
helping
lifetime
musicals
settings
sleeping
summary
views
##ack
##ug
achieve
beast
burns
court
criminals
dennis
fourth
inept
initially
notorious
pacino
prefer
renting
sarah
understood
##hed
##iled
bourne
brad
breathtaking
depiction
league
learning
lifebr
pregnant
regarding
rolling
sitcom
susan
teeth
##ane
##nd
##ore
##room
bore
china
complicated
convey
couldve
endbr
jungle
larry
lisa
mexico
raw
rip
##cious
##mp
##ral
##ship
##which
calling
cultural
dragon
encounter
entertain
format
indie
kung
picks
purely
quirky
table
##ative
##ell
##ges
##hood
##rain
##they
cabin
critical
decades
description
disbelief
expert
freeman
honor
julie
mildly
murderer
ned
prepared
rachel
rough
starred
underground
##board
##ingly
##ini
##there
##ulate
appreciated
drinking
friendly
funnier
join
leslie
notable
productions
serve
status
throwing
throws
touched
via
writerdirector
##cted
##ide
##ured
adding
answers
arms
basis
carries
comical
dress
everyday
expression
flight
introduction
onbr
subplot
##cies
##gling
##late
##looking
againbr
base
blown
bollywood
criticism
protect
raised
strangely
task
##down
##ip
amongst
brooks
caring
extent
fallen
intellectual
kiss
racist
succeeds
suck
wears
attempting
carried
carrying
causes
claire
environment
foster
hoffman
inspiration
michelle
originality
raise
regard
shadow
sword
ted
truck
usa
##cal
angels
cases
cell
challenge
charge
choices
embarrassed
enjoying
handle
jessica
johnson
maria
praise
protagonists
related
ripoff
socalled
weapons
##cle
##nie
lazy
ludicrous
rogers
shut
sidney
sinister
spoof
tales
warned
##ade
##cs
##ked
breath
determined
elizabeth
experiment
gruesome
ironic
lie
locked
lugosi
needless
obnoxious
replaced
southern
turkey
##cent
aunt
burt
daily
escapes
graphics
interpretation
nowadays
pet
properly
screening
sleazy
sun
westerns
wins
attacked
blair
chilling
clips
hardy
interviews
jail
obsession
remote
stanley
tradition
trick
##com
##ders
alas
arrives
essential
exists
jumps
laura
reference
remind
scripts
served
tight
warner
wave
##ization
##om
##over
##val
busy
che
contain
fortunately
hitchcock
india
marvelous
navy
punch
sold
stops
timing
##fied
##mate
##tch
ashamed
dollar
established
frequently
goodbr
goofy
hills
nonexistent
oddly
successfully
##nne
##rry
authentic
balance
drives
flawed
inspector
jewish
oscars
ratings
refuses
revolves
rival
stylish
sum
term
##che
##ura
andrews
flow
guard
hence
horrific
legs
manager
mentally
mindless
mirror
nation
par
risk
struggles
upset
warn
##ison
##ony
##side
##tly
albeit
bette
comedian
delight
greatly
hood
intensity
overcome
philip
retarded
riding
shower
sides
suspects
titles
tree
##ics
attacks
bridge
cynical
gods
intentions
lane
lesser
mansion
mob
nonetheless
poignant
roberts
spoken
stomach
tense
toy
wishes
##bing
##od
bitter
buck
controversial
cooper
expressions
fbi
husbands
jay
lessons
lion
madness
presentation
thousands
topic
##cher
##izes
##ren
adapted
chan
confusion
demon
glimpse
lucy
medical
opened
personalities
seeking
stranger
stupidity
suffered
thrilling
vacation
wasting
wealthy
##ai
##ez
##rey
##wing
bound
dinner
dubbing
eg
guessing
holmes
hundreds
internet
nazi
pride
scientists
storm
##ash
advantage
broke
contact
courage
dislike
gross
happily
hint
infamous
mass
patient
perform
ps
separate
shines
shorts
text
thief
tracy
uncomfortable
whereas
##graphic
##point
chair
chases
corner
countries
miller
miscast
noble
performers
reed
sings
trite
##bility
##pers
atmospheric
credibility
credible
east
elvis
helen
horses
innocence
letting
millions
mouse
physically
rocks
shape
suggests
trial
##em
##ets
##ibly
##mans
##ury
cameos
consists
cook
glass
grey
gripping
hole
hundred
racism
reunion
sexuality
sin
technique
therebr
tied
womans
##class
##ils
##nic
##nts
badbr
crisis
curse
develops
ensemble
lovable
lying
pool
portrait
steps
troubled
youbr
bears
bettie
bo
catholic
concert
hanks
holiday
idiotic
meaningful
noted
oneliners
pg
ralph
saves
screenwriter
stretch
torn
##als
##bling
##movie
accepted
drink
enjoyment
exceptional
gain
kurt
lincoln
neat
plastic
proof
searching
sentimental
unforgettable
vincent
weapon
wwii
##ied
##sis
attraction
belongs
connected
dialogs
dig
entry
fish
franchise
herbr
hiding
host
imaginative
nd
sandler
shed
thrillers
toobr
##aging
##ators
##logical
##uit
aired
andrew
annoyed
card
christ
concerns
hoped
nine
pack
sends
solve
spots
##ening
##fire
##ient
##ines
##oon
##pping
##unt
##vin
##with
achieved
arm
assistant
closely
endearing
flaw
guts
hearts
italy
jake
lucas
object
per
quote
repeat
succeed
virgin
widmark
worry
##ature
##els
##ham
##just
##sa
aged
appearances
bag
battles
checking
colorful
cousin
crimes
dealt
eerie
encounters
equal
fortune
ha
homeless
irony
mstk
nights
profound
redemption
striking
##ese
##mination
##tory
##worthy
believing
complaint
covers
dentist
dragged
factory
library
neighborhood
nelson
oil
pat
persons
segments
stanwyck
sutherland
teach
tour
tribute
tune
videos
##ria
bat
bucks
civil
cube
dear
essence
hamlet
hang
hooked
hunting
miniseries
ourselves
pointed
rush
slight
snow
stan
thousand
##ome
appearing
baker
branagh
charisma
cheese
countless
dare
expensive
glory
health
incoherent
knife
laid
moviesbr
pitch
seagal
shoots
split
strikes
surrounding
##ever
##face
##going
##tering
attempted
briefly
catherine
chances
charismatic
chasing
competent
condition
dancer
dorothy
jeremy
lloyd
massacre
matthau
spending
stealing
stood
surrounded
theyd
workers
zone
##aries
##uck
aforementioned
attached
birthday
colour
crafted
curtis
denzel
elsewhere
fx
grows
horrendous
intention
month
ripped
rochester
rushed
shall
specific
stronger
stunts
terrifying
tons
unintentionally
wing
##era
##gger
##ho
##ight
##posing
##type
##uation
##writer
##zing
admittedly
associated
betterbr
easier
hip
individuals
le
messages
reactions
setup
sexually
sullivan
trade
wanna
##fy
##ula
##wise
arnold
beating
burning
creators
forgive
gag
guilt
magazine
noise
perfection
requires
tricks
university
##don
##gle
##hy
##ification
##uded
corrupt
dawn
drags
dropped
gift
goal
guest
homage
identify
increasingly
kings
luckily
nose
revelation
silver
spike
stated
stunt
typically
wake
##ig
##row
##stone
allowing
boredom
cardboard
cats
chuck
dramas
exercise
faced
fired
gothic
gotta
ian
importance
neck
overrated
represents
strictly
vague
##fest
##ink
##ium
##lly
##mber
##oe
barry
camerawork
chaplin
commit
contract
enters
fifteen
fitting
horrors
hype
importantly
instantly
kane
kicks
kidnapped
killings
loser
medium
mild
painting
performing
plague
reynolds
techniques
virus
walls
winter
##are
##cked
##lia
##unk
basement
bobby
boll
brando
carefully
disagree
eva
godfather
handful
jesse
presumably
pushed
relevant
row
sophisticated
##die
##ech
##ime
##itor
##set
##uing
brand
doors
flash
letter
notch
nuclear
packed
partly
pie
pleased
realise
reallife
sally
shining
strip
thumbs
weight
wonders
##ants
##book
##how
##ulated
##we
acceptable
admire
bride
britain
buried
comics
continued
derek
destruction
executive
frustrated
heat
hitting
hudson
korean
marks
mustsee
occurs
overlooked
pleasantly
press
resolution
returning
silence
superhero
talked
toilet
tremendous
wondered
##ast
##for
##his
##ien
##old
##worth
##yle
arrested
breasts
canada
competition
evident
fears
iii
inevitable
jamie
lab
listed
persona
prevent
secretary
strike
superbly
worthless
##bby
##born
##even
##girl
##hs
##ically
##ored
##ras
##sion
##that
##wed
accused
attracted
beings
bible
boxing
bullets
bush
carol
citizen
digital
doc
estate
fatal
flawless
guide
investigation
larger
los
masters
opposed
picking
projects
regardless
relative
shy
spell
stiff
subplots
walken
##cks
##eer
##ett
##hi
##lic
##mon
##ov
##rts
##shed
##tered
afterwards
appalling
burn
closeups
directorial
dvds
genres
glover
highlights
jumping
karloff
kudos
mafia
menacing
nazis
outrageous
planning
revealing
root
someones
spiritual
splendid
struck
##han
##oke
##rin
##sm
##sters
##urs
##what
ad
ambitious
brilliance
characterization
conspiracy
creation
cup
flynn
hire
inspiring
ironically
lacked
logical
notes
precious
rd
remaining
savage
slightest
sole
spooky
subsequent
suits
thrills
twin
uninspired
union
useless
ward
##cast
##grade
##igh
##kes
##ko
##place
##ular
accomplished
aimed
blob
clues
con
convoluted
curiosity
depression
dire
documentaries
elderly
francisco
heston
installment
ken
melodramatic
mid
morality
neighbor
notably
photographed
pulling
raped
reasonably
repeatedly
repetitive
souls
spoiled
streisand
wannabe
watches
wes
##bit
##iling
##ja
##kins
##lers
##ram
##table
##uff
achievement
bleak
border
cared
cia
cox
draws
drunken
duke
forbidden
generous
insulting
intrigued
jerk
loosely
minimal
non
overdone
poverty
providing
push
response
rid
samurai
screams
shortly
smooth
tea
territory
theyll
ticket
timothy
wicked
worldbr
##rre
##some
adams
blows
corpse
darker
davies
definite
distant
elvira
emily
explore
failing
filmsbr
funnybr
futuristic
gradually
hatred
jealous
mel
mile
neil
psychiatrist
reduced
ritter
shadows
spring
timeless
##ifies
##rates
##tz
##uated
##ump
captivating
carpenter
goldberg
intent
laurel
manhattan
meat
obscure
outcome
piano
reasonable
shell
sticks
tall
thirty
wells
##hes
##nal
##sha
absence
alike
argument
beaten
burton
discussion
doctors
elaborate
et
gentle
grandmother
ignored
improved
indians
knock
misses
mitchell
motivation
nurse
pushing
rap
spielberg
trap
unbelievably
##ache
##aling
##cut
##ease
##ule
##ush
##weight
alexander
beer
brazil
cameras
childish
concerning
connect
contrary
cried
cruise
dave
disease
em
explicit
farce
fisher
huh
liberal
miserably
norman
psychotic
resembles
shoes
spin
stole
sunshine
tortured
tunes
turner
##ducing
##erbr
##film
##woman
##zo
affected
blend
builds
cole
complain
craig
currently
danes
diamond
displays
eve
exaggerated
extended
fancy
glenn
hardcore
horrid
kenneth
lou
monkey
prom
purple
ranks
reached
returned
shark
sloppy
string
temple
threat
throat
vicious
warrior
waters
worried
##beat
##boy
##cial
##ep
##gar
##gen
##nia
##ound
##yer
alltime
arrive
carter
charactersbr
consequences
dancers
demands
distance
enjoys
fay
hollow
houses
idiots
matthew
ought
panic
pretend
sacrifice
spirits
spoilersbr
subjects
swedish
threw
upbr
website
wreck
##act
##ag
##ara
##can
##mes
##rman
##teen
argue
beats
blank
broad
drawing
drivel
duo
eyre
farm
fever
harder
hysterical
overacting
photographer
poster
receive
restaurant
ridiculously
robots
smoking
triumph
warren
##after
##bo
##lee
##logy
##minate
##rian
annie
australia
burned
conversations
disc
dynamic
greek
groups
jet
landscape
modesty
movements
officers
progress
scripted
size
smoke
##gate
##lam
##lines
##ogue
##rid
##ues
anyways
brains
broadcast
buddies
carrey
comfortable
commercials
cusack
daring
devoted
differences
dignity
empire
engaged
exposed
heroic
holy
hugh
incident
investigate
involvement
ireland
load
murderous
popcorn
recognized
ruth
scientific
selfish
selling
staying
styles
trio
upper
##ars
##aving
##bles
##developed
##ek
##hand
##lock
##night
##pect
##tain
##uch
##ulating
##using
aging
apes
areas
astaire
bands
brosnan
cagney
choreography
couples
critic
dinosaurs
escaped
existed
gray
joey
journalist
kitchen
lily
machines
mate
mountains
newspaper
occur
offering
orders
proceedings
producing
rural
secrets
superficial
swear
symbolism
threatening
titled
translation
vivid
##ae
##any
##mission
##more
##sive
bathroom
bite
block
clint
deliberately
detailed
discovery
ex
explaining
grab
innovative
lips
margaret
rage
relies
tame
thugs
uneven
winters
##aking
##eur
##ew
##iable
##iac
##ively
##ses
##ulous
##unce
##ures
##ying
audio
bell
birds
causing
dawson
dialogues
editor
felix
focusing
folk
hollywoods
imagined
implausible
ingredients
intrigue
juvenile
lighthearted
merit
mildred
nearby
occurred
perry
possibility
removed
signs
soviet
staff
stiller
timesbr
twelve
unpleasant
versus
wealth
web
workbr
##american
##ea
##fall
##irs
##low
##rich
##vert
abc
abilities
adequate
catches
chain
combat
conventional
craft
damage
defeat
disturbed
furthermore
generic
kirk
lawrence
maker
meaningless
nightmares
onscreen
overwhelming
pays
population
primary
resemblance
sadistic
sadness
showbr
sidekick
travels
undoubtedly
watchbr
##ana
##ci
##lt
##mas
##q
##rass
##ugh
##vious
##vised
altogether
atlantis
banned
bin
clothing
clumsy
composed
devoid
discuss
eccentric
explosion
falk
flies
headed
hurts
karen
lifestyle
narrator
passes
portion
primarily
pulp
remarkably
ships
trees
unbearable
##coming
##oting
##pet
##position
##uss
afford
antics
backdrop
cameron
chaos
cuba
dimensional
dozens
dracula
enormous
exotic
explored
financial
giallo
glorious
hates
highest
hitman
itll
jeffrey
leg
liking
maggie
official
react
secondly
settle
spare
surviving
thrill
unintentional
winds
yesterday
##arian
##atic
##port
##uate
beneath
bird
blatant
carl
consistently
decisions
disjointed
doomed
fond
gandhi
kapoor
mickey
mixture
models
morebr
reaches
represent
roman
scheme
shine
smaller
survival
ties
ups
urge
##ase
##ces
##eers
##ented
##lk
##mark
##mit
##ole
##right
##rist
bold
brady
careers
cary
cheating
clown
coherent
describes
distracting
dutch
edie
errors
fighter
hal
hints
judging
mistaken
neighbors
notbr
notion
odds
outer
paulie
props
rambo
rank
slap
unwatchable
uwe
walker
wallace
##bed
##conscious
##ji
##posed
##style
##ways
advance
ah
amy
april
bedroom
blew
brooklyn
butt
contained
dances
dating
desperation
diane
directs
drops
enterprise
everyones
florida
freak
gangsters
garden
heartwarming
hideous
ideal
impress
influenced
instant
kennedy
monkeys
offended
possessed
richards
scenebr
sellers
senseless
seventies
specifically
sport
subtlety
survivors
tap
tear
thick
tommy
toys
trailers
vast
whale
##ab
##cts
##ense
##ify
##lm
##matic
##mic
##rah
##van
##ws
adorable
benefit
blake
celluloid
classes
commented
countryside
crush
dedicated
depressed
divorce
ego
etcbr
explosions
frustration
guessed
introduces
jazz
lasted
linda
loads
matches
method
montage
performer
peters
practice
rebel
relations
revolutionary
screenbr
seenbr
simplistic
soccer
stellar
topless
voight
weakest
wolf
##bie
##ents
##etic
##friend
##minded
##ntal
##ture
##ven
arrogant
awake
backgrounds
bare
circle
claimed
coffee
developing
doll
eastwood
emphasis
flop
forms
hammer
holly
honesty
illogical
immensely
involve
justify
leonard
loyal
miserable
motives
mysteries
occasion
passionate
philosophy
politically
principal
rick
rooms
ruthless
saga
satan
shelf
staged
succeeded
suited
tender
todd
##cate
##especially
##law
##ose
##rable
##rent
##tend
##tone
##uke
##war
blues
bone
chorus
command
considerable
destiny
dickens
disappear
disappeared
endings
endure
funeral
hank
hbo
interaction
jonathan
kicked
link
lust
measure
melting
outfit
planned
realizing
recorded
severe
similarities
sits
solely
stress
synopsis
tad
thoughtful
tracks
transformation
trashy
traveling
unfolds
wasbr
wrestling
##ath
##fe
##hearted
##ira
##ith
##lay
##long
##mb
##rell
##tling
##tors
##uns
##urry
agrees
aid
angeles
authority
avoided
cards
chased
companion
comparing
consistent
corruption
cure
displayed
ease
facing
ginger
hamilton
harvey
isolated
lemmon
lyrics
menace
orson
photos
quotes
scenesbr
shirley
stereotype
treats
wore
##af
##bert
##ees
##eon
##ility
##lan
##lied
##oh
##oks
##oms
##ows
##uted
amanda
bonus
buffs
carrie
celebrity
colonel
dolls
donna
eighties
ellen
embarrassment
enemies
formulaic
goodness
grasp
helicopter
inventive
kidding
madefortv
moody
possibilities
preview
purchase
report
represented
riveting
satisfied
similarly
surfing
swimming
switch
taught
tongue
waited
yellow
##dies
##doo
##nate
##rant
##udes
##ulation
akshay
behave
cg
charlotte
cliff
combine
defend
delivering
duty
ears
handed
hunters
improve
judy
march
mario
myers
nervous
onedimensional
oz
promised
prostitute
relation
snl
solo
terrorist
user
vegas
voiceover
widow
wished
##ac
##ams
##chy
##hin
##inal
##ken
##lon
##nzo
##rch
##rily
##thing
##ural
blond
buildings
chess
closest
closet
crack
faster
fix
global
godzilla
hook
horrifying
ignorant
pages
parent
philosophical
reads
rocket
suitable
transfer
unhappy
unsettling
valuable
waves
wives
##ari
##dbr
##fs
##gue
##itude
##lish
##ners
##part
##rice
##uses
affect
agents
artificial
bebr
blacks
buff
corporate
destroying
diana
education
elegant
engage
hart
humble
inane
inbr
kingdom
lately
maintain
motivations
nicholson
online
painted
reaching
reflect
sappy
scores
scottish
snake
stinker
stooges
thru
tonight
virginia
##aring
##ato
##ax
##een
##ei
##ject
##lling
##mates
##rp
##ums
##vation
abysmal
access
airplane
airport
armed
bullet
centers
cleverly
coach
concern
conflicts
disappoint
earned
fooled
germans
iron
lees
letters
miike
miracle
museum
plant
potentially
pretending
questionable
racial
remarks
rex
rotten
safety
scarecrow
scope
secretly
seed
sentence
shake
slave
splatter
staring
stevens
stinks
terry
tiresome
understandable
useful
wed
wet
yelling
##cular
##gal
##nant
##ph
##read
##roll
##rse
##star
##sted
##tation
advise
alcoholic
alongside
americas
amounts
arguably
blade
blunt
brutally
campbell
civilization
communist
depicts
dinosaur
disneys
dub
elephant
exploration
faults
finger
firstly
francis
gadget
hung
inferior
intentionally
jumped
lay
mall
nicholas
nostalgic
poetic
provoking
purchased
sandra
slick
survived
trained
wandering
womens
##ained
##del
##ition
##lie
##making
##nch
##nk
##outs
##pa
##tones
##usion
##zer
abusive
advanced
arrived
bath
beliefs
channels
confidence
convincingly
edgar
ethan
floating
fonda
greedy
grinch
guarantee
gundam
illegal
joined
lena
lengthy
mini
namely
nomination
patients
plight
pokemon
porno
proceeds
punk
raising
rendition
rising
robbery
september
showcase
spoke
steel
stilted
streep
sub
tie
troops
understated
vulnerable
willis
wizard
##edbr
##eyed
##gent
##gh
##lman
##nny
accompanied
advertising
agreed
ape
attitudes
ballet
balls
beatty
bottle
cake
careful
carradine
chicago
cinematographer
construction
designs
downhill
familys
fascinated
homosexual
lit
madonna
morris
nonstop
peoplebr
pig
relatives
resort
sbr
species
spread
transition
visits
witches
wrapped
##cratic
##dge
##ette
##headed
##ift
##ita
##rading
##rms
##rrow
##ui
##ux
##watch
aids
berlin
capturing
catchy
cave
christians
cities
classical
compelled
complexity
copies
damon
demented
devils
foul
frequent
heartbreaking
hopper
intimate
jenny
june
junior
latin
li
likewise
limits
lol
lowest
macy
molly
niro
nyc
parallel
pops
recognition
ruby
satisfy
shirt
signed
simplicity
sue
taxi
worker
wound
##ception
##dled
##dles
##ement
##ere
##made
##ography
##ote
##played
##tage
##tons
##wan
alternate
babe
bakshi
bang
challenging
cheated
chicks
crucial
daddy
del
der
descent
dreary
eager
edition
equivalent
exceptionally
georges
gerard
grandfather
hilariously
illness
inappropriate
khan
leo
lively
lone
losers
manipulative
mars
mm
mundane
nonsensical
nostalgia
olivier
opinions
paltrow
phantom
prequel
prisoner
robinson
schools
square
tends
vengeance
wellknown
ya
##aming
##ave
##fight
##gles
##hn
##lity
##lter
##ried
##tan
##ust
amitabh
appreciation
awe
boot
capital
chest
chooses
choreographed
cinemas
conservative
demand
domestic
eaten
excessive
homer
incomprehensible
misery
montana
muchbr
ocean
overlook
pearl
poetry
prisoners
pursuit
rat
raymond
remakes
restored
scooby
seeks
shelley
suspicious
tomatoes
twilight
widely
wishing
witnesses
writes
##ada
##ats
##cia
##gard
##gie
##here
##hone
##ids
##lings
##mal
##ncing
##ona
##ppy
##rum
##tar
##tched
##tter
awfully
basketball
bela
belong
blowing
brenda
bumbling
calm
cd
constructed
crocodile
da
dalton
desired
doubts
elm
enthusiasm
experiments
franco
incompetent
introduce
invasion
justin
kicking
landscapes
laws
legal
literature
mann
masterful
messed
methods
nations
opportunities
paranoia
performs
plausible
plotbr
prize
progresses
resources
robbins
royal
seriesbr
simmons
sincere
smiling
suspend
vaguely
wisdom
##art
##cky
##itate
##ntly
##onica
##orship
##pal
##vich
##yard
arrival
assault
assigned
bacall
borrowed
climactic
craven
creativity
distinct
earl
eitherbr
feed
generations
kay
loaded
louise
masterpieces
mayor
mechanical
mentions
mummy
nuts
petty
polished
promises
randomly
recording
resident
resist
responsibility
richardson
suffice
tag
trademark
viewings
wacky
##ail
##ald
##cating
##di
##graph
##ila
##lash
##love
##stic
##thriller
##urse
##vis
ashley
assumed
attend
attorney
betty
conceived
creep
dolph
dust
expressed
fields
fury
gifted
greed
heights
icon
improvement
inevitably
jaws
map
marty
mighty
omen
operation
parties
pit
poem
polanski
punishment
rangers
receives
ruins
scrooge
showdown
simpson
sink
slaughter
sneak
solution
spirited
stale
standout
stargate
stones
strangers
teachers
terrorists
troubles
unaware
underlying
unit
unoriginal
visible
waitress
wendy
wholly
witnessed
wounded
##acy
##ancy
##beth
##chi
##ctic
##ently
##lands
##length
##list
##llas
##load
##los
##mother
##opers
##ran
##uge
##xual
aboutbr
acid
activities
alfred
angela
bergman
businessman
chapter
closed
contest
edgy
educational
females
gabriel
historically
instinct
iran
iraq
keith
laughably
lumet
mentioning
muslim
offbr
overlong
pot
property
quit
rabbit
randy
rats
straightforward
teaching
testament
warmth
warriors
whoopi
willie
##bi
##car
##cover
##ean
##gans
##ister
##ito
##ives
##lack
##lad
##len
##minated
##mine
##ox
##pable
##rill
##roy
##tel
##vel
##very
##wn
##ybr
alert
boom
bull
button
catching
christy
depicting
domino
equipment
exposure
fashioned
funbr
garbo
grabs
greg
hello
household
imitation
irrelevant
kubrick
merits
meryl
middleaged
minimum
minutesbr
mistress
moronic
pamela
pink
popularity
psychic
rocky
rolled
sid
spain
stunned
supported
survivor
swim
tiger
tooth
twins
verhoeven
voiced
withbr
wouldbe
##anne
##ctive
##form
##get
##iam
##ills
##inlaw
##lent
##lug
##mond
##most
##olf
##orm
##ploitation
##pped
##quest
##rick
##urb
accuracy
ambiguous
analysis
astonishing
bay
bud
butler
cannibal
championship
cliche
compassion
confrontation
cringe
daybr
definition
despair
directions
disliked
doom
empathy
eugene
exchange
feelgood
fought
fulci
furious
heartfelt
integrity
invented
kyle
landing
les
loyalty
marketing
masses
noone
palace
peak
phony
pierce
pressure
ramones
resemble
resulting
retired
romero
rubber
seldom
shaky
shaw
significance
sounding
spock
stretched
subjected
suggested
timon
tribe
unpredictable
unreal
unseen
uplifting
valley
##aps
##comedy
##dling
##duction
##edly
##erry
##horror
##illa
##ipe
##ites
##lare
##lined
##phia
##standing
##tance
##ua
##ually
##uth
##vant
##works
abraham
actingbr
adaptations
album
austin
biography
checked
comfort
confess
costar
dana
darren
defense
defined
distribution
drake
expedition
fascination
firm
gather
grayson
hopeless
immediate
inability
interests
josh
lackluster
metaphor
monk
nicole
ollie
orleans
othello
otherbr
package
pants
patience
reflection
remained
roots
simultaneously
sopranos
stumbled
trail
unexpectedly
watson
wifes
wretched
wrongbr
##ards
##case
##ctor
##fying
##hour
##int
##kar
##lacing
##lated
##minating
##rained
##rise
##tovideo
##tta
##ubby
##ught
alec
antwone
blast
claus
clip
closeup
companies
composer
conditions
creator
daniels
deceased
dee
difficulties
dixon
eastern
farrell
frightened
hears
israel
kissing
legacy
mankind
marion
musicians
nail
newly
objective
pan
phil
presenting
primitive
raises
rave
reel
refused
require
roommate
roth
shanghai
sixties
spacey
sums
technicolor
travesty
underneath
unfair
victory
ww
##aze
##bu
##ced
##faced
##gers
##gled
##mann
##mar
##mbs
##moving
##ops
##ridge
##rises
##rne
##rous
##ther
##ued
##ume
##une
##when
##yan
abused
andre
barrymore
buffalo
casts
christianity
coast
comedians
connery
deranged
desires
dimension
discovering
dreck
experimental
favour
fido
flair
frustrating
gender
gentleman
glasses
interactions
joel
joins
julian
karl
lundgren
maid
maniac
milk
min
owen
pal
passable
photo
precisely
quietly
raines
rates
reid
remade
replace
respected
rises
scotland
screens
sharon
sissy
softcore
specially
stark
subpar
tastes
teaches
unlikable
ustinov
vulgar
wakes
yearsbr
##ama
##bes
##bited
##brow
##budget
##cated
##cene
##dog
##ending
##eo
##ibility
##ingbr
##ishing
##lation
##ott
##pel
##sty
##und
##verse
##version
##vision
##voke
##zie
adopted
alcohol
amused
appropriately
aspiring
assassin
audiencebr
awhile
behaviour
brutality
carell
characterbr
correctly
dose
dresses
dysfunctional
electric
encourage
examination
exposition
framed
graham
griffith
hyde
inexplicably
lands
literary
matched
muddled
nathan
nerd
ninja
nowbr
provocative
reeves
relax
rely
rude
stuart
sunny
tank
thingbr
walsh
wang
warming
widescreen
yard
##ebr
##ella
##fly
##gon
##hl
##human
##ico
##iring
##lar
##lavia
##mers
##plies
##rayed
##ret
##rling
##she
##sts
##ummer
##ups
##written
##yers
##zzard
absent
additional
alternative
amusement
automatically
bernard
bunny
charged
chicken
choppy
credited
deaf
downey
emperor
femme
fest
filling
fingers
frankenstein
generated
grotesque
hopkins
invites
knocked
lock
macarthur
marshall
masks
mode
mtv
musician
ordered
parade
paradise
phrase
positively
premiere
prepare
preposterous
preston
purposes
referred
rifle
roof
ross
sabrina
sentiment
sentinel
shared
shoddy
shouldve
ss
tacky
teams
tomorrow
tracking
visiting
wildly
wrap
##acts
##bbing
##cure
##formed
##geon
##ias
##ibe
##ired
##iss
##lew
##nge
##ody
##omy
##reat
##rel
##rine
##ronic
##rting
##tbr
##umed
##unting
accomplish
alicia
babies
beverly
biko
cattle
citizens
complaining
counts
demise
fantasies
glowing
greatness
hackneyed
hawke
hopelessly
insurance
items
ladder
leon
loneliness
madebr
mclaglen
morbid
moreover
murdering
poison
posters
realised
refer
region
reign
releases
respective
romp
rooney
senses
spark
sung
swing
topnotch
translated
tube
uncut
unfold
vance
vice
##bble
##box
##bury
##con
##dest
##dly
##foot
##ifying
##ishes
##ius
##motion
##tin
##umb
##world
abrupt
absurdity
accepts
admirable
alison
bargain
bridget
caricatures
celebration
challenges
complaints
corpses
costars
deserted
ensues
eternal
fed
fi
forty
function
gambling
guests
handling
harm
ignorance
imaginable
indication
infected
invited
kansas
laurence
lush
mins
misleading
naughty
nephew
objects
pitiful
pun
realm
regarded
russia
shares
shoulders
silliness
singers
skull
thoughtprovoking
towns
trend
weakness
wellwritten
youngest
##ang
##bound
##cking
##claim
##cracy
##dication
##eating
##eek
##gation
##girls
##having
##ich
##iety
##illing
##inted
##lli
##loud
##lucky
##macy
##rbin
##rky
##shes
##tal
##tary
##tein
##uise
##will
active
address
affection
asylum
beside
canyon
chainsaw
chills
coincidence
conveys
cope
cruelty
crystal
depending
devices
din
drove
evidently
grief
hammy
heros
hitlers
hk
ho
iconic
insipid
jews
minded
muppets
nicolas
nod
noises
oldest
owners
palance
partners
phillips
prey
pro
promote
puppet
receiving
recommendation
recycled
reflects
respectively
sci
secondary
servant
severely
skits
suspension
threatens
wilderness
##andra
##dor
##ello
##hot
##iented
##kis
##lot
##named
##nics
##orted
##ply
##rat
##rks
##rmed
##rone
##shi
##tas
##tated
##then
##tis
##vice
##vity
acceptance
acclaimed
affairs
aim
authors
baldwin
belushi
burst
buster
caliber
cassidy
comparisons
conscience
conventions
conviction
crawford
cue
damme
deniro
disappears
edit
el
fianc
freaks
heading
hughes
industrial
investigating
kumar
lifted
lois
malone
mccoy
mill
minus
nolan
obligatory
occasions
outfits
outing
paramount
policeman
portrayals
posted
prejudice
priceless
records
reluctant
rita
shades
squad
standup
stores
strongest
sympathize
tasteless
togetherbr
tyler
understands
underworld
venture
visited
weaknesses
##cca
##ein
##ert
##hell
##ieu
##jo
##kers
##kle
##leton
##mm
##nor
##orbed
##pes
##pose
##rary
##rings
##rio
##si
##though
##tized
##usions
ants
anywaybr
attract
billed
bros
darn
dates
demonstrates
designer
difficulty
ear
elses
emerges
entitled
explores
filler
fishing
fog
frankie
gregory
guaranteed
hapless
heist
hers
inconsistent
interestingly
kolchak
labor
locals
misguided
morally
muppet
murray
patricia
penny
phenomenon
pointbr
predict
previews
profanity
programs
psychology
redeem
rejected
renaissance
selection
shakespeares
sketch
spinal
stages
steady
studying
suitably
terrified
thread
tobr
trivia
wwe
##aux
##bone
##bson
##cluding
##cting
##ef
##eta
##lies
##lybr
##ological
##oney
##ple
##rage
##rays
##renching
##umbing
##unky
##uri
##urity
##urn
agenda
anticipation
assuming
banal
basinger
beatles
betrayal
cancer
clarke
claustrophobic
clock
co
commander
communicate
conclude
cream
deleted
despicable
diehard
discussing
dud
eats
feminist
filth
flashy
forcing
gems
guitar
harmless
harold
hippie
insists
iv
marries
marvel
michaels
mids
option
orange
palma
physics
placebr
prominent
ratso
reader
representation
rome
sending
shouting
sht
slimy
snakes
someday
sooner
soup
tripe
unexplained
vein
vibrant
visions
vital
worn
zombi
##ads
##ao
##aver
##balls
##based
##cha
##craft
##dead
##eased
##eral
##erved
##icks
##ioned
##iting
##nse
##obr
##only
##pin
##pple
##psy
##rably
##rance
##ree
##under
##wer
##ye
##zes
allens
befriends
biased
bike
blatantly
bread
cannon
carla
casual
champion
circus
claiming
clan
clueless
considerably
crazed
danish
delicate
depends
downbr
europa
flowers
housewife
immature
ingenious
jacksons
kitty
knight
kungfu
lindsay
martha
melody
mentality
millionaire
mirrors
pounds
rhythm
rod
route
shootout
sirk
slice
sox
springer
studies
tempted
tierney
transformed
unrelated
vader
welldone
winchester
##cho
##ensen
##erate
##esque
##filled
##hic
##ii
##ining
##lord
##minates
##ong
##onic
##oto
##sen
##sons
##vent
##volved
##west
##winning
##yn
addicted
adolescent
agency
altman
audrey
awaybr
bend
boston
campaign
challenged
charlton
connections
coupled
defeated
detectives
dressing
dukes
ethnic
exploring
fifty
fluff
fontaine
foxx
fuller
gear
gina
glamorous
grainy
grudge
height
historic
hokey
inexplicable
inhabitants
iq
kathryn
legends
lifeless
limit
marlon
meg
nemesis
paxton
pete
quinn
recognizable
remove
repeating
riot
rolebr
rukh
sassy
schlock
shortcomings
smiles
soso
stumbles
symbolic
tail
ton
towers
voted
wellmade
wings
##ace
##az
##chen
##dered
##ern
##iff
##inations
##itz
##lins
##ndo
##oked
##oper
##oy
##quire
##rank
##rier
##tured
##ucker
##uming
##uting
##view
##xed
ace
ambition
assassination
backs
bacon
bars
boyle
charms
childs
chuckle
computers
continually
controlled
couch
coup
departure
deserving
disguise
disgusted
drivein
employed
esther
exceptions
familybr
feeding
firing
freddys
handles
hangs
incidentally
independence
institution
item
keen
las
minority
novak
offbeat
outright
paintings
parsons
partially
praised
rapist
satirical
screenwriters
screwed
serving
shopping
sorely
stairs
static
surgery
swept
thompson
token
trials
tunnel
uniformly
vocal
##air
##ances
##ano
##ceive
##heads
##lets
##lit
##loth
##oned
##ort
##reak
##tting
##uel
##vated
##verted
##vian
accurately
arthouse
artsy
artwork
bates
bogus
bondage
bowl
boxer
brendan
bridges
bully
camcorder
cartoonish
cassavetes
centre
cheer
colin
commenting
curly
debate
destroys
dirt
disastrous
duck
dylan
earn
elite
endingbr
farfetched
feat
firmly
garner
gate
girlfriends
hack
hearted
hilarity
insightful
inspire
kidman
macho
melissa
mercy
messy
nails
natives
neurotic
newer
northern
organized
outdated
pacific
posey
preachy
preferred
ripping
shoulder
sugar
threatened
thrilled
tip
toronto
wax
##amine
##bb
##dad
##donald
##door
##fer
##fies
##fit
##good
##istan
##itated
##later
##lerance
##lland
##lum
##mart
##nis
##pia
##rest
##rising
##ros
##run
##rus
##sky
##ssing
##tie
##uary
##uity
##vor
anton
audition
bent
boasts
boringbr
brooding
centered
chavez
completed
concepts
containing
demonic
describing
destined
disorder
dj
donebr
doo
dudley
duration
election
engrossing
entered
evolution
excess
fade
fist
gillian
guinness
harrison
healthy
hides
info
kline
layers
leigh
liners
males
mayhem
mutual
neatly
norm
obtain
predecessor
readers
refuse
rooting
shaking
sharing
sincerely
sleeps
somethingbr
speeches
stalker
steele
strings
subtly
suggestion
ta
topics
traffic
triangle
uma
unlikeable
vain
vile
wheres
windows
yeti
##abr
##abs
##ault
##bor
##burn
##ervation
##givable
##hat
##ica
##ielding
##ional
##ix
##lect
##lene
##nett
##nst
##odies
##po
##rer
##resses
##rming
##rst
##rung
##som
##uld
##vers
##walker
advertised
affects
anyones
applaud
authorities
beware
boris
bulk
carmen
christine
cliches
critique
damaged
dazzling
deny
des
elevator
exquisite
frances
gal
genie
guards
hartley
helpful
helpless
hires
hugely
hungry
injured
jess
leaders
lifes
loretta
mannerisms
masterfully
mesmerizing
newman
nope
originals
pole
politician
profession
punches
quaid
raj
refers
relentless
rendered
reruns
rope
saint
seedy
skit
sobr
sometime
stack
stopping
triple
undead
vastly
wanders
weaker
weather
wig
woo
##aft
##bits
##carnation
##chu
##easy
##ehouse
##eys
##gin
##giving
##hero
##hers
##iation
##ilation
##inate
##ires
##ision
##iving
##lating
##lis
##nder
##nial
##nna
##nsible
##ove
##rnie
##rought
##sity
##tate
##tical
##ulent
##volve
##wards
activity
akin
alley
alvin
backwards
behold
bow
breed
btw
candidate
carey
cbs
choosing
chronicles
conrad
contempt
crashes
demanding
detract
dropping
duvall
emerge
error
excellently
exploits
fastpaced
fifth
fifties
gained
galaxy
goodbye
hulk
ingrid
insults
internal
itselfbr
jared
knightley
knowbr
lasting
lasts
lauren
lift
luis
lukas
mixing
motive
myth
nina
nut
owes
passengers
preparing
proving
publicity
racing
randolph
realities
residents
restrained
rides
scariest
scoop
sg
shorter
stallone
stare
startling
statue
storys
strengths
stunningly
tarantino
tenant
thunderbirds
tops
tower
unsuspecting
users
wendigo
##ado
##ali
##amp
##bourne
##cends
##ckle
##covered
##dal
##directed
##edited
##far
##free
##front
##iard
##iler
##illed
##ilt
##imate
##ique
##lla
##mind
##mitted
##quin
##rot
##tains
##ubs
##ulse
##uously
##vd
##vern
abruptly
alexandre
anil
antonio
approaches
ariel
attenborough
authenticity
bachelor
banter
belt
bitch
breakfast
bronson
buys
casino
cents
cerebral
compete
confront
confronted
continuing
contribution
convinces
cracking
deliverance
didbr
disappointedbr
disguised
dubious
eleven
elsebr
entering
errol
everbr
expertly
factors
fools
forbr
gere
giants
gimmick
globe
grounds
heels
highway
inaccurate
insights
jaw
joker
jordan
justified
kent
label
limitations
located
lovebr
macabre
mail
miami
minister
misfortune
modest
mutant
net
netflix
nolte
ol
origin
origins
poker
promptly
puerto
radical
rapidly
referring
screw
servants
sinking
sleaze
sniper
soylent
spree
suburban
tara
timberlake
tokyo
valentine
vanessa
votes
wardrobe
youthful
zizek
##ages
##burg
##crat
##driven
##fits
##fuse
##gian
##hane
##itsch
##lical
##lier
##llar
##ller
##nders
##noir
##rail
##rgio
##rner
##school
##tail
##takes
##titled
##ulously
##vo
##working
##writing
##xic
accessible
altered
approaching
austen
biblical
bitten
bmovies
braveheart
colours
comedybr
conan
confident
convicted
crapbr
dandy
definitive
depths
derivative
differently
downs
endlessly
eventual
expects
fords
formed
grateful
greatbr
growth
heavyhanded
homes
homicide
inherent
insanity
interact
jarring
landed
lend
lowkey
mitch
mol
monty
owns
painter
pale
perception
phillip
principals
puppets
rampage
regards
repressed
repulsive
reward
ronald
rookie
salt
salvation
sf
sticking
supply
toni
tormented
tossed
undeniably
underwater
unsure
vividly
walt
wander
##ables
##ake
##bad
##bal
##ceived
##check
##cles
##dowell
##ear
##eep
##gic
##hel
##icing
##ilton
##laws
##llo
##loy
##minable
##mps
##now
##oral
##orse
##osh
##parts
##people
##pressive
##ravity
##reasy
##rit
##rix
##tructive
##uin
##uk
##umbling
##umption
##vate
##wife
adore
ally
angst
assured
barrel
beforebr
bravo
bruno
buzz
caricature
cemetery
concentrate
conveyed
cries
damned
decidedly
depict
devastating
dismal
dobr
dragons
ebert
energetic
eternity
evelyn
exit
exploit
exterior
fatale
flashes
flimsy
frames
gates
glued
godawful
goodlooking
gunga
ham
handheld
hats
heavens
identical
immortal
imo
incapable
irene
janes
jedi
judd
jules
juliet
letdown
marc
mathieu
meandering
mice
mobile
moe
natalie
nominations
outline
overblown
pc
peck
photographs
pickup
playboy
polly
pray
published
reviewing
runner
sale
scriptbr
sensible
separated
siblings
spies
stranded
survives
terminator
unattractive
vehicles
wisely
witchcraft
yokai
zane
##aked
##ational
##delity
##dia
##dont
##gated
##guard
##guy
##iers
##ike
##ivated
##las
##lf
##lian
##lion
##liss
##minal
##nel
##nte
##oven
##pse
##pted
##raw
##rection
##rents
##rial
##rised
##sman
##take
##tha
##titution
##tles
##ttered
##umps
##unces
##urf
##urring
##wa
##yping
absorbing
accounts
addict
africanamerican
antonioni
appeals
arab
arguing
assembled
beowulf
bloom
bones
bsg
bug
butch
butcher
cecil
characteristics
chopped
clara
cleaning
cliffhanger
colleagues
combines
cons
contribute
creek
crippled
crisp
crossing
cultures
cushing
cypher
delicious
demonstrate
disabled
disgrace
divine
dread
drinks
enhanced
ensure
enthusiastic
entirety
excruciatingly
expose
farmer
filthy
fragile
harriet
hindi
homosexuality
implied
improbable
inspirational
intricate
judgment
lance
lester
lex
longest
mermaid
niece
ohara
oldfashioned
overbr
owned
papers
pattern
payoff
penn
performancebr
pleasing
principle
promoted
psychopath
quantum
reliable
reminder
reports
respectable
rivers
sand
scarface
severed
simpsons
soderbergh
sophie
stalking
sublime
subway
swallow
tapes
thoughbr
uniform
unimaginative
volume
wagner
wonderland
wtf
##aid
##aneous
##cels
##child
##clusive
##creen
##cript
##dler
##fi
##fic
##force
##gged
##hack
##has
##hield
##hine
##hop
##icism
##icle
##igans
##ik
##iously
##itation
##jack
##lyn
##nsibilities
##paration
##pective
##placed
##ressed
##rrows
##sey
##sian
##tender
##tent
##test
##tos
##ucci
##uller
##vs
##ware
##ziness
##zz
affleck
aided
amrita
answered
anyhow
astounding
attacking
bills
boyer
budgets
christina
collect
cyborg
decline
deer
distract
divorced
dustin
email
embrace
escaping
estranged
experiencing
fairbanks
habit
hippies
holocaust
immense
jacket
jodie
kidnapping
leather
lighter
mindbr
miranda
missile
mitchum
morals
nerves
nightclub
noticeable
ny
ominous
packs
parallels
paula
pickford
pin
pirate
popping
possess
pound
pursue
quentin
rainy
reeve
remembering
revolt
salman
scratch
seeming
senior
sentimentality
sergeant
sidewalk
steam
switched
tendency
tremendously
ultimatum
vanilla
victorian
whining
whiny
youtube
##ather
##aw
##cation
##ceed
##eline
##ential
##esh
##gence
##heimer
##iche
##iki
##isk
##itious
##lal
##lem
##nings
##oons
##oss
##oze
##pan
##piece
##riad
##sant
##saw
##ships
##tained
##ttes
##uid
##urable
##wall
adrian
aiming
alleged
amazon
approached
asia
avoiding
bach
begging
brainless
casper
cheaply
chill
christie
clash
classy
collective
contestants
conveniently
copied
corporation
crashing
crown
dame
dashing
daysbr
deliberate
demonstrated
denis
dilemma
disgust
earnest
exorcist
expectation
fills
followup
foolish
forgiven
gable
garland
ghetto
glaring
goldblum
grass
hackman
havoc
isolation
jaded
jill
juliette
knocks
kurosawa
lavish
liam
literal
logan
lola
longing
longtime
magician
manbr
messing
peaceful
peculiar
postwar
precode
rebellious
rescued
resolved
resulted
reviewed
ritchie
rounded
selected
seymour
sought
spaghetti
spectacle
stardom
stewarts
subtext
sucker
sydney
theories
toby
truman
turmoil
unsatisfying
updated
vince
virtual
voyage
wellacted
werewolves
whites
wilder
wire
wounds
yours
##alike
##atile
##bow
##cally
##cid
##cop
##ended
##eous
##ference
##forms
##gi
##hips
##ipes
##isy
##loat
##logies
##note
##oes
##paced
##pressed
##pression
##rams
##rive
##rly
##something
##tick
##tism
##ugging
##una
##vier
accepting
achieves
acquired
addiction
admired
arc
arriving
aussie
bittersweet
bombs
borders
burke
bw
cal
canceled
celebrated
cher
cinemabr
climb
coat
commits
contributed
dealer
debt
define
delighted
diverse
dramatically
dump
enhance
erika
establish
excuses
executives
feast
gamera
gentlemen
goods
hayworth
indiana
jealousy
jobbr
judged
karate
keatons
kellys
laurie
lightning
liu
liveaction
melvyn
morons
mum
mystical
odyssey
pad
pirates
planets
plotting
pocket
poses
potter
quarter
rear
rehash
relentlessly
romeo
rowlands
samantha
scotts
serials
settled
skilled
slapped
slaves
slip
snuff
span
spencer
spit
suspected
swearing
taped
thelma
thieves
tonys
tourist
trains
traits
vega
verdict
wartime
worms
yep
##acks
##actor
##ags
##cism
##citing
##come
##duced
##enger
##hical
##hon
##iced
##inian
##isation
##iva
##lves
##mad
##mbo
##obs
##oding
##olis
##olly
##olves
##ond
##oop
##produced
##rity
##rove
##rth
##tore
##toric
##try
##umming
##unced
##uncing
##vi
##via
##word
amidst
attending
axe
backbr
basket
bestbr
bounty
breakdown
bye
cape
cheek
circles
cliched
cohen
commitment
comprehend
cookie
courtroom
covering
cuban
dads
defies
deliciously
delightfully
drab
europeans
expense
exploding
explosive
flavor
fluid
freaky
frontier
furniture
graveyard
guinea
gypo
headache
hepburn
horny
immigrant
incorrect
informed
inmates
insist
intentional
introducing
jersey
korea
leap
legitimate
likeable
loy
lunch
mason
moron
nbc
novelty
overboard
pause
pedestrian
phenomenal
planes
populated
posing
predictably
preminger
psychologist
pumbaa
races
ranch
readily
redundant
remembers
rewarding
ritual
romances
sarcastic
seasoned
seductive
seebr
serum
shepherd
slugs
spice
stella
strict
suggesting
taboo
tax
tolerable
tool
uh
ultra
underwear
vanity
vintage
wiped
worsebr
yawn
##acted
##action
##ails
##asa
##bian
##boat
##cative
##ccupied
##ceit
##celled
##daughter
##din
##director
##ducted
##ground
##hart
##ides
##ience
##ilities
##inging
##iv
##licted
##logist
##mation
##nson
##och
##oking
##osie
##ously
##passes
##production
##ressive
##ridden
##ruction
##tably
##tled
##trusive
##ugged
##ulations
##urous
##vest
##was
##writers
##zzled
actorsbr
additionally
anxious
anytime
apply
arranged
arrest
attended
awakening
bachchan
barbra
beg
branaghs
carnage
caron
charlies
cigarette
clerk
clive
consideration
consist
corbett
counter
crosby
daylewis
deanna
debbie
deciding
diary
dominated
einstein
embarrassingly
encountered
establishing
experiencebr
festivals
firstrate
foundation
franklin
gielgud
gilbert
groundbreaking
gwyneth
hybrid
instincts
ira
jacques
july
jury
kinnear
lean
lends
lethal
lucille
meantime
medieval
mortal
mouths
mysteriously
newcomer
nuances
optimistic
otto
pans
parking
passage
phase
pilots
pixar
poe
polish
politicians
possesses
possession
produces
pushes
redneck
respects
ricky
robbers
screwball
sells
sgt
shockingly
sixth
slide
steer
stephanie
stroke
stylized
symbol
thirties
tongueincheek
trace
unsympathetic
wastes
watchingbr
wider
wine
##acher
##actors
##ame
##arine
##atory
##cending
##certain
##ciation
##ciousness
##dos
##duce
##erve
##eze
##foe
##gies
##heart
##hold
##ipating
##ises
##laine
##logue
##master
##maybe
##mical
##mn
##mont
##nell
##nessbr
##nium
##nous
##nsion
##olar
##ology
##pts
##ramp
##rns
##rom
##statement
##thats
##tily
##tobe
##ugs
##uis
##uits
##ulates
##ulsion
##umble
##umi
##vous
##wind
##ym
abandon
adaption
aftermath
anthology
anticipated
armstrong
arty
begs
blandings
breathing
brides
busey
casablanca
cindy
clone
compliment
controlling
daisy
deathbr
degrees
denise
distracted
distress
document
duel
dumbest
dumped
en
excruciating
explodes
exploited
feeble
feminine
flickbr
flock
forgetting
freaking
gloria
haines
hateful
herbert
hop
horrified
huston
incidents
indicate
indifferent
informative
invention
invite
jewel
kathy
kazan
keys
kubricks
laterbr
longoria
marilyn
mcqueen
mens
milo
misunderstood
motions
mute
narrow
neglected
noteworthy
obsessive
obstacles
olivia
ordeal
penelope
pfeiffer
porter
psyche
pursued
queens
rational
rejects
reverse
rider
roughly
routines
salesman
sarandon
scored
scorsese
session
sources
sparks
stabbed
stating
tactics
tickets
tvs
unanswered
unusually
viewpoint
xfiles
##ardly
##because
##conceived
##did
##done
##drama
##erous
##factory
##falls
##fman
##hoe
##igan
##iley
##imp
##inspiring
##ipping
##isfaction
##lea
##liation
##llis
##luth
##nas
##nks
##pend
##ployed
##poon
##put
##ractical
##raints
##rbr
##rds
##rieve
##roe
##rude
##rue
##ser
##tier
##tingly
##tyle
##umentary
##umping
##uo
##uz
##vas
##venge
##wells
##ykes
##zard
afterward
aggressive
agony
angie
arguments
arquette
august
belly
biopic
bubble
cannes
centuries
ches
columbia
combs
convention
cooking
corey
corman
corn
cunningham
darth
daylight
debra
depictions
distraction
eagerly
enigmatic
fiance
fishburne
flower
forties
frantic
freeze
fright
gangs
generate
goals
grabbed
grandma
hannah
historybr
inaccuracies
instances
intensely
iranian
jenna
mama
martian
meal
minnelli
monologue
mormon
moss
murky
mythology
niven
ofbr
participants
pathos
pointing
predator
products
pros
puzzle
rambling
regularly
relevance
rightbr
rosemarys
sanders
sensebr
sickening
spiderman
stations
sundance
targets
tcm
thurman
translate
turd
un
uncanny
upcoming
update
varied
verbal
veterans
void
warns
whore
##ading
##aves
##bergs
##bre
##calyptic
##ciate
##dimensional
##duct
##ect
##eria
##erving
##ested
##fects
##file
##half
##itos
##lag
##lice
##lip
##lous
##market
##mighty
##nack
##nails
##non
##ob
##odore
##onbr
##ook
##oses
##ou
##phet
##pian
##plete
##rical
##ruct
##sie
##spond
##struck
##tends
##thetic
##through
##tight
##tine
##uice
##utes
##uto
##vict
##volving
##wit
##witted
##year
##zling
admitted
ambiguity
ambitions
battlestar
begun
berkeley
blamed
bogart
carpenters
claude
click
coffin
controversy
county
criticize
curiously
deed
deputy
dillinger
discussed
dismiss
dumber
economic
employee
enchanted
evans
exclusively
fanatic
flames
followers
funding
gallery
glance
glimpses
goldie
gooding
grip
hadley
harlow
heath
herman
hoot
hyped
ignoring
inclusion
interestingbr
intro
jolie
jose
juan
kidnap
laputa
launch
lionel
lions
lip
lowe
lurking
manners
masterson
mates
midst
motorcycle
naschy
nerve
october
overbearing
paints
parks
paths
phones
plodding
policy
realistically
realization
relating
releasing
replies
resembling
rosario
rounds
sang
scarecrows
seats
services
shift
shifts
somethings
sondra
spine
stance
stardust
starsbr
starters
statements
sunrise
suspicion
swinging
tomei
traps
tuned
upside
whybr
widowed
wong
zorro
##adar
##ala
##bel
##bird
##ceptive
##chair
##ctions
##dance
##ected
##ends
##esbr
##fiction
##gging
##icient
##ika
##inger
##inson
##jection
##lane
##lary
##liness
##listic
##lons
##losure
##lty
##mill
##nn
##olin
##onte
##onymous
##ooo
##osis
##ost
##pade
##pets
##pie
##plant
##pses
##shing
##tv
##uited
##unker
##waiting
##wee
##woods
abortion
alot
ample
angelina
applied
applies
apt
assignment
avid
backed
biker
bosses
campus
capacity
chamber
cheadle
comeback
consequence
consequently
cycle
dominic
dreamy
dynamics
edith
educated
enoughbr
envy
extensive
factual
fleshed
foil
foremost
fried
frog
frontal
gap
gestures
gigantic
gloomy
haunt
hines
hinted
idol
ignores
imaginary
kathleen
knights
kris
lastly
linked
lo
mabel
maintains
maureen
meteor
miyazaki
moms
moneybr
murderers
narrated
necessity
offscreen
omar
ownbr
pains
periods
platform
popped
qualify
reflected
reiser
reunite
rewarded
ruining
rupert
safely
saloon
scenarios
scripting
selfindulgent
sentences
shepard
shore
sketches
skinny
sly
smash
snipes
snowman
stalked
stereotyped
sterling
stiles
stream
stuffbr
substantial
surroundings
sweden
syndrome
troma
uniforms
warden
##agining
##arily
##azes
##ban
##blins
##cenes
##dt
##ductor
##eases
##epper
##erable
##esthetic
##ete
##gid
##hh
##hmer
##holm
##ination
##ined
##irsty
##itors
##lore
##lton
##mony
##ngo
##nney
##playing
##posal
##raph
##rath
##rave
##ravel
##reaching
##runk
##theres
##uire
##unds
##urred
##ution
##venture
##voked
##vsky
##wart
##why
##yearold
acknowledge
alliance
anita
arkin
array
arrow
assure
awfulbr
babes
bait
bats
bc
beckinsale
benefits
bikini
biting
blaise
bleed
blockbusters
bonnie
breast
brooke
cab
cap
carlos
castbr
chamberlain
characterisation
characterizations
clay
clunky
collins
daytime
delirious
denouement
diner
du
eli
entrance
frozen
gaps
genrebr
georgia
graduate
gus
homicidal
insomnia
intact
invested
investigator
islands
israeli
jacks
kells
marisa
medicine
mick
momentsbr
momentum
moviegoers
moviemaking
muslims
nuanced
observe
paranoid
pegg
phantasm
pornography
pose
precise
protest
re
repeats
replacement
resistance
resume
reunited
revival
revolving
rips
robertson
rodriguez
russ
sailor
sammo
schedule
schneider
sebastian
shaggy
sheets
sights
sins
slim
smell
soprano
therapy
tho
tones
trier
ugh
unfolding
unstable
valid
wayans
wheel
witnessing
##abbing
##although
##arvin
##ashed
##asing
##astic
##aval
##bar
##bath
##berry
##caine
##cam
##city
##cute
##enia
##erce
##erson
##fare
##ffs
##fighter
##gone
##gregor
##iated
##ida
##igo
##illian
##inity
##lausibility
##lized
##lut
##marine
##meaning
##michael
##mmm
##murray
##ndering
##ndy
##nsive
##ntial
##oming
##ones
##ots
##passed
##pirited
##plication
##ployment
##poses
##quality
##ramer
##ringing
##rupt
##sport
##tically
##tively
##tract
##tti
##uish
##vably
##verts
##while
##wick
abound
admits
artistry
balanced
bauer
bias
boundaries
cheers
chiba
childlike
clooney
coke
collette
colored
commanding
cow
crushed
customers
deemed
detroit
displaying
enchanting
entertainingbr
ernie
famed
fleet
fortunate
fundamental
fuzzy
gathering
geisha
hayes
hooker
hostel
hysterically
inadvertently
interrupted
iturbi
johansson
johns
joking
jude
laboratory
landmark
lil
lopez
lynchs
mandy
marked
moviei
mustve
needing
networks
offend
parrot
pivotal
playwright
pm
prophecy
questioning
raging
realises
rebels
relying
reserved
retelling
rightly
rolls
sarcasm
seduce
sensibility
sheen
sherlock
shocks
shotgun
silverman
similarity
sitcoms
skeptical
sonny
sour
spider
stadium
stern
studied
sufficient
supreme
talky
thereby
throughbr
tire
tomb
unhinged
villainous
vivian
waking
weekly
##abelle
##ael
##agger
##agon
##alta
##aning
##ashing
##ayed
##caring
##ceeded
##centered
##cite
##cket
##cr
##culate
##dern
##drawn
##eak
##educated
##elia
##encing
##ental
##esquire
##feld
##ffy
##fined
##fining
##five
##ggy
##gler
##hole
##inguished
##ipulation
##iral
##isia
##istol
##itybr
##lazing
##look
##lving
##maker
##mented
##mobile
##mund
##nator
##net
##nit
##ois
##oom
##ord
##pending
##perfect
##power
##ptic
##rator
##ressing
##rified
##rish
##rives
##rlin
##tect
##thy
##tinent
##tro
##ubbed
##uce
##uguese
##umbers
##uni
##unning
##uries
##urkish
##ursing
##vet
##vour
##wry
accidental
accompanying
addressed
ajay
ala
announced
arebr
arrogance
awareness
baddies
bakshis
beckham
boogie
boots
brett
bust
caprica
caretaker
celebrities
chaotic
charges
cheerful
chew
commendable
comparable
complications
confined
controls
convent
courtesy
coworker
criticized
deathtrap
demille
despise
determination
disco
district
diversity
divided
doug
drowned
egyptian
enduring
epics
evokes
fairytale
fart
fassbinder
favourites
finishes
finishing
forgets
frombr
fruit
fuel
gackt
galactica
handicapped
hardened
harrowing
hitchcocks
howling
insert
interior
interviewed
janet
lunatic
madeleine
madsen
maximum
myrna
nauseating
northam
observations
olsen
penned
phoenix
professionals
progressed
psychedelic
puppy
quintessential
randall
reluctantly
reminding
republic
rice
roses
samuel
scheming
se
shameless
shred
smug
spotlight
stake
stumble
subgenre
subsequently
substitute
sunset
sweat
trauma
trivial
truths
unclear
understandably
unfamiliar
unnatural
upstairs
usbr
vargas
vignettes
visitor
wash
washed
worldwide
##ades
##adventure
##akable
##ania
##anor
##appealing
##aunchy
##calypse
##cestuous
##ciated
##ckless
##conventional
##cope
##create
##cture
##culated
##dering
##eps
##erick
##experienced
##eye
##folk
##fuss
##hah
##haired
##hid
##hops
##hwin
##iking
##inda
##inducing
##ione
##izza
##jamin
##juana
##key
##lame
##larity
##lient
##limatic
##little
##lls
##looded
##louds
##lund
##manent
##marish
##mmunication
##mouthed
##ndance
##nizing
##ociate
##ocks
##oll
##ood
##ooth
##otional
##owning
##pades
##pting
##raged
##raint
##range
##restler
##rging
##ritz
##rop
##rost
##rote
##rron
##rtle
##ruder
##rwin
##shadowed
##shot
##stery
##tee
##tible
##tire
##uc
##ules
##ully
##ulu
##vering
##vic
##whelmed
##write
adele
affecting
annoy
antagonist
aroundbr
backstory
baron
blackandwhite
bonanza
bonds
brat
brent
burial
cain
cameraman
camping
captivated
characteristic
chong
chuckles
cmon
colleague
composition
considers
convenient
cutter
deeds
destination
devotion
distributed
dynamite
earliest
engine
entries
explode
fascist
file
flows
gorilla
guardian
gut
hallmark
hawn
himselfbr
hiphop
hostage
hostile
hunted
infinitely
injury
inserted
interpretations
judges
kindly
kirsten
krueger
laying
lens
license
magically
martians
mccarthy
meadows
misty
monks
monotonous
musicbr
obscurity
occult
olds
orchestra
outlandish
owl
participate
perverted
programme
python
rea
recover
relaxed
salvage
sanity
scarlett
semblance
seth
shannon
sholay
sincerity
spoiling
summed
surround
sylvia
targeted
tashan
temper
testing
thailand
thrust
tide
timmy
titular
traditions
transparent
travis
um
unnecessarily
verge
whimsical
whod
wholesome
wright
yell
